[PAD]
[UNK]
[CLS]
[SEP]
[MASK]
!
#
$
%
&
(
)
*
+
,
-
.
/
0
1
2
3
4
5
6
7
8
9
:
;
=
?
@
\
^
_
a
b
c
d
e
f
g
h
i
j
k
l
m
n
o
p
q
r
s
t
u
v
w
x
y
z
£
²
ø
ย
ร
อ
–
—
…
€
你
葱
送
##o
##p
##e
##c
##a
##r
##m
##u
##l
##i
##d
##k
##b
##n
##v
##s
##g
##y
##h
##w
##t
##f
##z
##j
##x
##9
##7
##0
##2
##q
##6
##8
##3
##5
##1
##4
##ย
##ø
##ร
th
the
##er
##in
##at
##nd
##ou
##os
##re
and
##ing
##on
to
##en
##es
ap
##an
apos
of
in
##al
##or
##ed
##is
##it
##ar
that
##ot
you
##om
##as
wh
it
##ic
##le
we
##ll
##ow
is
be
##ly
##ut
##ve
##ion
re
##et
##ent
on
##se
ha
##ct
this
##ld
##ay
so
##st
qu
st
##id
##ig
##ur
##ch
quot
for
##ver
##ce
##op
they
##ke
an
was
do
##im
##ere
##ir
##am
li
##ith
are
go
##ally
he
##th
with
what
se
ab
pr
have
##ol
but
can
##ad
as
sh
##ter
##od
##out
##ation
com
ne
wor
##ht
at
ch
##ra
there
about
##ould
me
all
not
##ill
fr
##il
##ant
##ge
##ul
##ust
##est
ex
som
##ers
de
##ore
or
my
pe
##ear
##ight
one
con
##au
peop
people
##um
##art
##ok
like
bec
lo
##ure
ma
##ck
if
from
##ate
##ess
##ive
##ity
kn
##ies
##ist
##ble
al
te
tr
now
##ind
##if
pro
our
just
out
##ect
these
##ink
us
sp
know
##all
##ery
##un
##ause
thing
en
when
##rou
##us
because
up
see
them
##and
##ie
##her
how
very
##pp
think
pl
##ich
who
get
##ort
by
some
##ain
act
##ci
##og
year
int
##iv
going
##el
ever
your
im
sa
which
##one
tim
had
##ap
more
here
look
su
##ine
##ost
##em
would
##ame
ve
comp
##our
##act
un
##ast
really
##gh
##ually
##ose
their
le
##ment
want
then
ta
work
##ard
##ous
were
world
##iz
##reat
##are
way
##ack
every
##ence
##hing
no
am
than
per
time
has
##ab
##ans
exp
##ther
don
ev
man
actually
say
##ace
into
will
where
##ag
fe
##ide
ag
##ild
could
##ong
pre
##fer
##alk
things
##nt
##ions
##itt
years
other
##age
did
##00
##ud
somet
well
ar
cl
af
inter
tw
##nder
any
new
co
she
##ical
##ach
happ
right
make
been
said
##fe
bu
##ip
dif
res
##ia
start
part
dis
need
over
fir
two
##ue
something
mo
##own
##ree
##so
imp
##ry
##olog
##ory
mu
first
br
po
##pt
back
##ire
ro
kind
those
got
##ass
call
##round
his
##ens
##ign
##ice
##orm
ph
talk
##ite
##ittle
##sel
little
##ount
##ib
##ound
##ang
differ
spe
##ater
also
##ac
cont
most
much
ac
des
id
fo
life
##ple
lot
##cent
##ro
##ves
##ber
##ult
##lo
ad
##qu
sy
under
##oss
##ody
##ff
ind
##way
bet
even
##ving
bo
##vel
only
day
##ome
##able
##king
take
good
##ep
##ated
gr
##ght
hum
her
many
##ations
em
let
##ial
##co
##ade
##ss
##ick
##ish
##uct
down
does
##other
##rain
##rough
ide
show
different
dr
through
around
put
sc
why
##ph
comm
##ict
##int
may
real
##ms
##ase
ll
##ell
##ents
##pl
being
##ance
##ark
##urn
tech
tell
gen
use
##cess
sm
##ible
inc
come
car
##ak
##ange
great
thou
big
##ath
##ject
##form
##wn
##ary
techn
##ric
##day
##iver
three
##ors
proble
try
##ting
happen
str
same
off
wr
##lect
##stem
##ether
##ower
sur
cr
fact
##ful
doing
count
human
##ning
##ual
pers
##ys
bl
##ically
##uc
##ology
##xt
##ile
child
build
gu
##ren
after
percent
ear
##ved
find
sim
system
##illion
again
called
##red
dec
##ons
##fore
fl
##ied
stud
##body
long
bas
##ces
##ert
##ord
##thing
##igh
inv
made
##self
##ics
rem
##nds
##ious
##ian
own
ob
inst
##ition
col
today
##ating
##ub
sch
##av
should
quest
design
bel
##ress
##ars
lear
op
##cial
##ft
##we
##ize
turn
underst
import
play
sci
last
##les
rel
jo
hel
interest
end
##te
thought
##ates
another
person
brain
creat
him
its
old
feel
ask
wom
ins
mean
cour
idea
trans
power
before
##con
thank
##ities
##als
change
didn
##be
important
fu
ke
exper
##ution
cons
art
story
000
give
went
prod
##ool
started
##ope
##pe
mon
##ise
understand
##ough
##gan
exam
##ail
never
help
point
##ty
imag
school
##ility
pat
found
plan
kid
##ular
sl
better
##erg
##ily
course
problem
pol
cent
bit
eng
##ists
##kes
sort
belie
sol
fam
might
##ix
next
19
ok
##ather
tra
each
num
min
ter
still
nat
technology
tog
mod
ago
few
together
high
came
##ward
ser
four
med
ed
able
##ense
app
##velop
water
##oth
ext
place
commun
comple
develop
10
##ween
##alth
between
mus
hu
learn
##ited
20
##eric
##read
looking
##ience
##ness
rec
seco
##ave
dat
fin
##atch
too
grow
used
cre
##ines
love
##ized
##iss
small
question
mom
##ven
met
americ
light
comput
eff
##lic
maybe
##ific
gra
##ures
bi
el
done
##ork
read
##iness
##oc
att
cell
##cept
children
lar
##az
partic
whole
##ably
far
##ute
##oney
doesn
sk
##ets
data
expl
##ways
wo
afric
example
care
rep
move
##conom
million
wanted
project
econom
building
##per
cap
less
war
beh
##selves
five
stu
gener
##ds
bus
##cy
univer
##gr
giv
##ative
book
##formation
health
trying
live
poss
working
##ale
hard
women
second
pres
money
vis
chang
sub
##ural
supp
away
reas
always
everything
doll
space
kids
form
believe
pict
##ational
elect
cor
##nect
hand
##aw
country
ho
##ands
open
##gin
##ger
##cer
##ug
food
organ
prob
##tern
anim
teach
using
energ
##air
##atter
##ments
##fect
prot
number
##ah
mark
run
mind
thinking
##aces
sing
contr
dem
times
cou
fut
information
fun
create
took
##ism
resp
home
glo
ent
head
frie
energy
##its
hal
red
bring
earth
char
##aut
means
gre
walk
##led
##wh
spec
future
200
val
##ries
best
left
##hip
##ues
interesting
acc
cle
become
lead
making
quite
intern
##ten
reg
enough
getting
##ead
##ital
compan
##cover
connect
grou
process
sense
probably
cam
##ks
group
gover
set
comes
##ention
says
month
##iew
govern
##bal
air
pub
##gest
social
half
cur
without
stuff
beaut
##ull
##ouse
##iting
sw
##ories
begin
hist
##ogra
##vir
talking
product
##ner
##ction
##ont
##sw
##ier
##ient
body
mar
##cus
##lf
africa
happened
share
science
pop
room
youn
wonder
pie
##ew
dollars
pass
keep
par
##ood
##ird
phot
side
##ever
business
##viron
coming
add
##ying
wee
answ
environ
else
educ
prof
eas
sound
##bs
anything
dist
##ced
##der
six
pret
phys
bad
cult
hour
acr
##olution
ey
soci
moment
##ices
sign
ty
scient
gl
makes
##ety
simple
##ne
top
pretty
##ember
hope
mid
lives
goes
bre
global
ted
across
once
##me
mor
##uring
##imate
such
told
stand
city
allow
aut
living
reason
basically
model
##ior
##cr
##earch
research
##ograph
##ts
##str
picture
matter
opp
yet
##ins
seen
##man
##llow
##pr
##ash
det
stop
##ertain
face
music
saw
imagine
fig
inf
##ote
amaz
##ided
mil
##io
particular
countries
wa
happens
ways
while
effect
##res
family
che
##ince
prop
case
list
young
gir
##no
okay
level
sit
planet
mach
##ina
amp
later
experience
environment
having
days
problems
pain
##ization
asked
stre
##ings
##bo
computer
##where
vide
ideas
rob
remember
yes
discover
conf
watch
##iter
lang
rest
cost
inside
##most
##work
##ots
self
single
blo
##br
##ott
lab
def
##ortun
everybody
heart
complete
age
billion
certain
states
##aps
##ilt
both
mag
polit
sure
##ters
nothing
contin
##ality
cho
class
incred
saying
##ulation
history
langu
girl
thous
dev
##itive
dire
vir
loc
test
##ank
wrong
pos
almost
whether
nature
within
answer
##imes
oh
news
state
unt
looks
hear
##ready
ge
beautif
dise
fore
treat
sec
##ape
##med
already
leg
30
##na
men
exc
cond
net
sou
##ury
##arent
##ling
##orn
cancer
##ences
large
##dle
god
guy
cells
##ants
100
50
##aterial
fil
suc
possible
amazing
kill
true
##ivity
tre
##allen
15
##utes
di
##ield
exact
control
beautiful
##ivid
##gram
cal
often
public
engine
heard
looked
oce
figure
mem
ass
market
law
community
##lish
full
video
program
material
works
##pect
##osed
aud
##uce
months
built
india
free
line
equ
adv
##ri
arch
##nding
pay
someone
dra
##ages
universe
piece
##less
government
##ndred
challen
hundred
middle
##land
myself
must
##ases
##ene
order
##vious
##uck
instead
##side
united
education
house
follow
since
iss
ret
##ately
stories
until
##ware
deep
##den
##ake
ye
isn
##vers
##atic
words
sometimes
night
abs
green
cra
past
##ired
extra
species
##ider
taking
##aper
nor
decided
##get
front
entire
land
ste
places
object
experim
##ps
##cle
##ians
somebody
individ
##bers
##ane
wind
##row
rev
##ames
result
internet
train
##ustr
dep
incre
couple
av
mic
language
mother
rather
##ime
math
##etic
tool
sun
##omes
##ives
quick
exactly
view
##0s
##ined
inno
name
wasn
struct
individual
##ock
##line
third
kinds
ourselves
everyone
though
oil
##ental
har
##ional
complex
fly
itself
##ibly
yeah
##acter
friends
completely
##urs
themselves
close
focus
bab
ris
turns
game
hy
minutes
huge
animals
##ats
students
woman
step
society
job
##ond
became
mass
93
ele
coll
terr
##ream
##ron
91
rad
deal
##ability
success
dig
happening
behav
mot
del
gets
company
##aster
word
along
ant
##ogn
happy
clear
team
study
learned
emp
created
hours
invest
america
ref
meet
shows
##ator
##ision
ocean
##vation
disease
cir
##itting
##wards
univers
meas
ple
won
##ared
century
explain
mill
ones
listen
norm
natural
##ming
death
cau
guys
hold
bott
american
##istic
##ush
present
##lud
##ples
liter
##ident
diff
fund
fre
##cc
##rop
##ium
china
relations
field
opportun
ra
questions
non
##haps
seven
collect
var
##sy
perhaps
pred
early
prov
amount
cut
##ken
direct
knew
mess
oth
##face
against
parent
area
based
oper
es
eight
couldn
others
miss
neur
expect
##que
worked
lots
recent
##ract
gave
learning
##olved
##icult
speak
##ted
##ones
black
moving
machine
pot
##ients
##ern
takes
##cul
least
technolog
colle
bar
arg
sens
sug
sym
vi
super
network
during
outside
obvious
##ither
grand
short
finally
protect
york
jour
##not
systems
pattern
##ged
wonderful
##ature
vo
eur
needs
culture
##astic
difficult
appro
tem
difference
scale
opt
##ential
record
beginning
sum
##inary
18
lau
##aring
chr
chem
interact
foot
center
##itect
hands
taken
architect
exist
##ially
##ising
maj
typ
thousands
##ination
trad
blue
common
12
fail
wall
eyes
surpr
powerful
relationship
##ides
fall
whatever
perform
drug
democ
behavior
##sych
image
##att
ill
##cious
yourself
break
##gress
buy
turned
behind
seeing
emot
support
##ully
population
cy
low
occ
##itions
doct
lim
psych
##ero
sud
given
size
##ented
consum
##ency
leave
communic
pract
major
reach
impro
spend
bir
personal
parts
instit
audience
##utions
##olute
rich
perfect
##unch
local
cop
extre
friend
photograph
bra
emb
relig
terms
changed
easy
absolute
squ
pen
week
##ton
interested
insp
cannot
##ump
ess
pick
##ges
flo
##verage
famil
40
paper
south
##rod
##mer
ground
##cks
known
##itch
access
economic
eat
tot
began
evolution
media
europe
##osp
serv
##aking
##ret
stay
event
vers
conv
longer
dark
##app
##ru
##ruct
poor
father
##ler
##ource
##idence
ir
##ply
press
includ
win
##ipp
##ony
gone
national
sex
##els
feed
needed
##ule
simply
civ
##ging
##hor
##fully
##ison
profess
fish
surv
dream
spent
humans
realized
value
either
orig
##ological
incredible
film
bill
ident
##ledge
sudden
##ode
tried
sent
enc
##ouch
##ney
parents
##ivers
25
##rought
mole
special
ice
##ows
mult
white
situ
cities
key
electric
quickly
sil
##up
feet
descr
surface
produc
growth
##ources
structure
dest
##ilar
##ibility
fast
sitting
force
##ains
##izing
cool
obs
repres
ability
##iving
##elt
arm
companies
lost
strong
compass
dna
##gs
sea
wouldn
recogn
##cing
##ators
near
##avor
robot
draw
vol
##arch
growing
slow
measure
caus
hor
extreme
prin
fear
##lt
sever
##room
fire
books
street
engineer
pur
##li
sho
indust
travel
bene
die
nice
##ids
##plic
consider
animal
born
##ised
##ument
enter
##ax
##iny
stage
phil
##anger
economy
dim
pull
compassion
weeks
political
ur
vill
forward
reality
morning
viol
web
knowledge
predict
hot
stra
technologies
stat
##ustain
modern
opportunity
fight
circ
brought
sat
serious
hosp
mal
tele
medic
respons
north
civil
ce
touch
##rent
felt
##inal
requ
experiment
anyone
wrote
visual
gal
miles
bottom
approach
##ford
##ards
starting
developed
mathem
theory
dead
patients
box
##ny
suggest
##eter
pa
areas
##ills
##ively
impact
bro
write
similar
feeling
images
changes
camp
camer
##ral
giving
blood
revolution
climate
##acy
color
gives
##cially
soft
sell
mov
sustain
##ances
priv
conc
##ption
scientists
##end
##oud
spread
##ored
##hood
worth
drop
cars
attention
fac
##ades
patient
##aly
##uth
##entially
literally
depe
const
road
path
development
leaders
discovered
tradition
comb
seems
unf
understanding
ach
dou
##amed
##ellig
crit
numbers
tools
prom
average
shape
##bon
realize
ec
##old
main
##ife
intellig
##ister
except
concept
challenge
hun
guess
lay
##ived
risk
##lu
playing
ah
eg
rul
##zy
express
english
absolutely
poll
ult
##ex
running
sal
##oph
compet
meaning
physical
rock
polic
hundreds
dan
##ped
affect
movement
er
fur
wish
##ensive
benef
est
prev
developing
current
eye
millions
nobody
scre
girls
phone
telling
type
avail
describ
##ucle
post
##loy
term
mount
##par
##ference
arr
recently
hon
##iant
##ove
##bor
##yn
favor
flow
##rib
##urity
cover
creating
##inese
din
##erm
##ified
bal
nucle
##ned
##he
##to
soon
map
showed
normal
dimens
##ram
##ley
knows
changing
industry
alone
solution
ball
##asc
##ateg
speed
medical
baby
##ique
truth
##ival
anybody
general
ox
chinese
##iod
seem
smart
innovation
obviously
##por
##ik
##ift
period
##arr
##apt
##aged
transp
transform
fair
talked
emerg
produce
link
rele
neigh
among
incredibly
issue
##asing
neg
carbon
fundam
tiny
save
conscious
##pecially
especially
designed
solar
11
led
199
subject
available
rate
haven
aren
deg
dom
online
boy
drive
##ites
becomes
writing
virus
university
trust
achie
hig
##yond
beyond
lived
table
eth
peace
syn
joh
port
west
##eed
##bit
bigger
generation
##struct
please
games
sle
##ried
##oun
aw
nine
rid
lea
security
tas
##ban
##ishing
happiness
reasons
extraord
bur
east
##racy
text
resources
vision
situation
bacter
died
##osph
star
defin
digital
react
putting
computers
groups
device
##ops
##istan
solve
##mers
##jo
office
gt
pu
necess
##ilities
progress
tells
sounds
bed
##go
rules
ep
lt
zero
adm
##ished
schools
scientific
div
hit
track
clean
materials
##ese
lif
clos
several
##arily
##ased
pictures
voice
##erv
chance
##ief
gas
sn
##of
##lict
##by
towards
quality
##chan
function
positive
princi
further
convers
interv
grad
skin
prim
##ude
involved
dam
source
goog
evidence
teachers
issues
lad
##oring
passion
particularly
john
danger
action
##ips
indeed
suddenly
aware
##xic
effic
micro
60
##let
projects
##ze
##oms
sold
asking
##ma
##ify
##usion
basic
report
park
song
search
##abor
minute
##ously
cross
certainly
##une
##roll
character
college
chemical
experi
capital
message
village
bud
fant
hiv
choice
hospital
son
sand
##ein
##gn
##ffer
trial
anyway
##light
safe
wants
##iar
spir
brit
breat
attack
vari
fa
##enom
plant
ready
connected
dav
mechan
examples
journey
##uly
starts
hom
isl
moral
##book
conflict
virt
showing
graph
walking
birth
software
stick
send
notice
tend
everywhere
exciting
potential
tom
##augh
student
square
mathemat
nuclear
google
##ros
detail
carry
sky
democracy
##fort
door
flu
remark
totally
##oming
biggest
fill
##ai
##how
likely
##itten
##medi
extraordinary
tar
vac
onto
##ogen
moved
capt
500
##po
##icle
sequ
##umb
activ
teacher
##cuss
labor
thousand
screen
page
##ring
complic
deliver
16
##eth
##verty
activity
introd
poverty
wait
##ext
##uit
##gth
store
##antly
##aur
##ners
##apan
mob
cris
eventually
mine
named
##itary
cook
grew
fix
japan
imm
perspect
buildings
medicine
whe
largest
african
international
author
extremely
cause
apart
##iger
jobs
transl
##ugg
return
doctor
fem
pan
##gen
threat
magn
essentially
camera
sleep
code
suffer
expert
organization
watching
bank
lose
separ
usually
continue
diag
objects
collabor
plants
older
appear
check
results
improve
galax
pack
rain
##isions
spect
imposs
trees
ast
burn
cat
san
sam
##oles
##oken
##place
supposed
david
mars
push
wild
gold
heav
disapp
ended
account
electricity
##ground
somewhere
clin
phenom
brains
movie
fing
offer
ang
print
##aught
talks
context
strange
coun
products
##mend
higher
phenomen
mis
above
immedi
##ipt
adult
series
magic
freed
temper
##osphere
hop
deb
##iction
surg
blind
larger
mir
##more
##erve
##ann
enjo
somehow
particip
represent
cit
dad
luck
pal
##nal
creative
##others
meth
influ
##akes
points
glass
detect
king
los
ann
role
studies
impossible
bom
fra
lands
mist
##dom
##idge
meant
continu
calcul
crazy
da
sus
shown
sorts
corre
forest
christ
site
webs
##etry
forms
##ims
allowed
models
molec
policy
ben
fine
##use
##estern
infect
waste
##odies
muse
accept
minds
purp
80
swe
wife
goal
finding
central
signific
including
therefore
president
beauty
excited
killed
training
14
jud
##inct
town
##ches
clim
ultimate
income
198
electr
standing
traditional
crisis
17
fasc
tree
conditions
assum
individuals
architecture
taught
##cape
concer
address
bacteria
museum
ger
##lier
rece
stars
prison
##rage
truly
##ung
enorm
##ires
reading
neighbor
complicated
perspective
##ping
##atory
##ster
##cient
discuss
content
written
respect
distrib
drugs
citiz
faster
kil
##ama
trick
##emic
hero
scr
genes
position
secret
depress
families
fundamental
ban
fle
rand
##isms
unc
painting
favorite
western
##inating
upon
increasing
laun
version
fantastic
bunch
cart
late
od
##ought
inse
shap
plastic
thanks
region
treatment
innov
mental
##onse
##ently
##ube
##tend
communities
biology
pieces
daugh
##rep
alive
afford
himself
surprising
straight
oxy
den
rise
##son
price
##izations
##ffic
neurons
cele
mention
fort
worse
trou
expensive
fuel
skills
response
freedom
rap
tal
##oke
##zz
doc
construct
alth
throughout
strateg
celebr
lower
##ror
##inated
##iti
roll
service
unfortun
although
##rum
##bi
##vision
liber
##ologist
humanity
remind
famous
military
successful
hall
sad
##ining
##ulate
log
##soci
optim
launch
##amm
trade
fold
genetic
kept
machines
card
dar
tur
##egr
thr
industr
board
earlier
finan
smaller
spirit
##come
##iet
hey
shot
afgh
beings
clearly
colleag
familiar
violence
##cise
##amic
actual
cold
publish
physics
reflect
recognize
aid
cases
##men
##ulf
uses
unique
##epend
invent
americans
patterns
throw
worry
healthy
choose
achieve
la
##rap
##ables
decision
saving
rights
solutions
##ission
effort
values
determ
environmental
costs
occur
industrial
rule
tv
##fact
##onom
##ana
##sequ
anal
dog
associ
##ured
anywhere
desp
specific
allows
employ
##imp
##istics
greater
##rene
invented
dollar
contrib
listening
iran
philos
lines
sor
tiss
##eties
##vert
sect
##anda
manage
driving
engineering
afghan
13
lat
tun
##itude
weight
##ounds
blog
dyn
ten
##ef
##amp
prep
decisions
waiting
provide
dangerous
##iced
forget
controll
drink
demon
production
autom
propert
religion
broad
critical
##itation
##thern
artist
urban
none
comfort
conference
however
slight
engage
teaching
robots
intelligence
jump
tit
whose
agric
seconds
walked
conversation
remarkable
agricult
cry
##ike
anymore
direction
##iversity
surgery
hur
range
##put
##atically
hell
legs
enjoy
21
dance
hair
shark
atm
becoming
gene
explore
electron
cultural
##resh
politics
ara
bang
et
yell
##oon
##bol
##iling
##ologists
connection
multip
je
##cies
##back
tor
##ays
##iles
##ained
massive
floor
depend
pig
##ndon
##uted
alg
veh
private
immediately
demonstr
bodies
match
nut
ran
##rees
##eless
##acity
greatest
decade
increase
flying
motiv
journal
nation
##oid
##unk
integr
indian
##phone
physic
encou
interview
website
enormous
ine
##eters
exh
##iven
speaking
commer
useful
slide
swim
performance
##reprene
300
base
fat
mut
wer
##ffe
##antic
201
final
entreprene
block
laws
practice
copy
##cl
##enced
##sem
select
chair
##uss
##pped
willing
creativity
effective
terror
vict
##bb
##ales
forth
##aging
independ
wood
hole
condition
following
raise
tum
##ee
scan
various
television
temperature
weren
ver
##rast
##50
##rael
moon
relative
196
inspired
survive
transport
israel
police
shared
networks
services
insect
unfortunately
fit
ken
funny
histor
radio
produced
task
90
##iation
##gu
appl
sharing
consequ
crow
##uced
understood
meeting
summer
types
##attle
doctors
ahead
random
##ball
##yle
##lly
loved
evolved
hyd
inspir
sustainable
24
cust
mos
##orrow
heat
helped
infrast
tremend
purpose
infrastruct
gather
wire
##bel
weap
societies
micros
harv
babies
consciousness
hous
mr
##wood
##ancy
##aries
##ceed
london
mostly
desert
boys
flight
possibly
popular
profound
effects
directly
institutions
method
catch
##oty
forces
coast
genome
levels
destro
wide
##atives
island
frank
##ander
below
experiments
democr
wealth
##bert
career
birds
citizens
financial
##ec
active
tail
apply
markets
airpl
standard
prevent
sorry
ira
##ration
quant
parad
german
bul
fash
pros
surround
metap
astr
##aign
##rew
ancient
belief
197
bringing
governments
challenges
focused
terrible
campaign
bought
mich
vul
trib
brill
strugg
capacity
supply
emotional
afghanistan
aids
wis
beat
##iding
compon
coffe
decide
artists
switch
scientist
##cules
pressure
original
dinos
gh
ren
##ufact
washing
frame
org
##izes
expand
twice
offic
##board
laugh
##rupt
fashion
hus
mix
##osy
##aling
##thes
ord
##empt
instance
played
causes
##like
mountain
honest
gradu
mobile
mad
##sh
##ervation
manufact
##iber
biological
##ception
complexity
trouble
austr
eating
gard
##anc
##itor
##aining
tax
spending
pleas
communication
closer
oxygen
infrastructure
vulner
coffee
ign
##ky
##inate
##itted
smell
decades
oppos
symbol
chris
slightly
iraq
70
ax
rough
ut
plat
intel
##uction
diseases
molecules
daughter
rom
##arian
related
devices
diagn
ske
##iforn
workers
breast
californ
doub
efficient
rh
##cope
##ises
memory
##wise
shock
email
paid
degrees
climb
##iest
##thetic
##olve
worst
##ores
resist
broken
calls
dram
designers
photos
philosoph
arab
yellow
tremendous
bread
gar
gent
loss
##ob
##ened
##ada
trip
displ
gotten
corner
answers
cheap
total
atmosphere
etc
custom
california
400
lack
mamm
river
##outh
##orge
seas
party
##rench
##order
classroom
foreign
lin
mort
niger
race
##arm
chick
mexic
surve
hyp
wheel
band
##here
##win
##oper
##ami
notion
differences
creates
magaz
hearing
window
communicate
shoot
vacc
published
tissue
dying
hang
##iers
shel
##ement
scul
foundation
edge
religious
##osystem
vast
applic
##anced
forg
noticed
teen
agree
##aced
lights
visit
richard
ecosystem
commercial
brilliant
pet
##key
seemed
mission
responsibility
phenomenon
neighborhood
cogn
rare
sick
shop
##cked
fellow
spee
helping
##othes
farmers
conduct
paul
double
colleagues
nations
##pher
##aff
##right
##ius
##istry
studying
feels
musl
easily
members
significant
giant
mit
rot
##ios
recover
assem
unlike
partners
##load
basis
turning
planets
highly
particles
photo
programs
nearly
mouth
##orith
##edia
##icles
##cell
acad
attract
organizations
algorith
gentle
sculpt
diversity
##cest
##ening
knowing
novel
imagination
argument
landscape
gun
narr
tens
##band
##tle
altern
cooper
respond
reduce
streets
frequ
batter
fab
tast
inj
ancest
##ils
surge
charge
profit
restaur
volun
necessarily
nan
russ
##af
##arter
##otic
prize
aspect
attempt
explor
possibility
stopped
choices
##ruption
correct
metaphor
ble
fed
##mit
##ued
##for
##stein
stem
bridge
passed
paint
structures
motor
opportunities
relationships
brand
benefit
negative
intellect
bound
faces
tour
##vity
shift
##used
noise
differently
joy
traffic
accom
leads
addition
figured
fully
element
missing
balance
dimensional
definition
microb
despite
stren
analy
libr
note
amb
designer
brings
harm
professor
ultimately
austral
ug
##ees
##met
##iqu
##ya
reb
dol
spaces
cru
join
moments
##ification
accord
mathematics
female
lucky
##uing
##icking
reve
##ulous
impress
adop
##quit
stream
forever
foss
##har
tow
que
brother
contact
invis
insight
lesson
organisms
newsp
emotion
emotions
benefits
puzz
bomb
agriculture
strength
cand
french
ju
##vit
##zen
appe
helps
facebook
fairly
virtual
finger
ray
asia
chur
background
engineers
suffering
fresh
gall
host
iron
male
mouse
master
tough
##aria
##raid
previous
afraid
##itely
adapt
appre
discovery
pengu
slowly
counter
wisdom
speech
cred
diver
lapt
mer
mas
row
##antage
concent
cloud
grass
creatures
##connect
accur
shares
matters
legal
150
billions
degree
adults
fascinating
bon
core
jew
##house
habit
chann
farm
elements
fighting
purs
##ls
##ett
prior
mel
meat
spl
intu
interp
boat
##athy
crash
begins
distance
typical
institution
professional
civilization
competition
sector
fol
mur
##com
##aim
##water
therap
##erly
##osh
justice
spot
leading
easier
hopefully
caught
raised
experiences
british
influence
rapid
darwin
##cop
##cles
weird
##verse
##ysis
corpor
demand
##ography
grandm
walls
identity
statistics
leaving
necessary
target
platform
cognitive
appreci
replic
stress
##ulated
##ears
maint
##ifically
##ifying
##iable
##roc
install
subst
heads
##ipped
responsible
epid
kilom
destroy
bird
mc
zo
##uary
##bur
##ering
##idents
seat
defe
moves
brown
pock
##ibilities
finished
meters
##print
investment
fields
embra
horr
fif
sister
##idden
quote
##apse
otherwise
##orders
shouldn
importantly
fourth
creation
holding
describe
magazine
##ront
##itter
##enty
ham
##throp
shr
truck
studied
colors
politic
depart
avoid
dreams
insects
grain
hate
lunch
round
##atures
##edd
repe
replace
seed
uncle
letter
artific
capable
regular
normally
obsess
principles
galaxy
according
invisible
ton
wow
##ypt
##fl
ship
franc
##uls
everyday
childhood
remote
economics
organic
##ographic
seriously
damage
molecule
husband
church
bag
vent
wik
##eral
##leg
##urally
held
co2
brief
indic
protein
yester
languages
drag
entirely
trained
versus
require
opposite
dolph
vot
##cra
##rogen
##inist
##celer
compare
events
roof
commit
circle
##ropri
consumption
intelligent
egypt
sequence
depression
airplane
cos
dry
apple
##anes
##irt
proud
##ulations
exch
##uments
desire
grade
article
equival
deeply
argue
cycle
convin
principle
concerned
fortun
##mark
##ha
toward
wear
reward
soph
chap
managed
click
acceler
grown
crime
simpl
flat
opin
believed
stuck
empower
yesterday
ath
bow
bone
era
len
incent
##asa
##lex
bear
beach
station
##ume
##atell
whenever
evil
arms
bright
warming
opening
prototy
accident
oceans
followed
failed
majority
institute
layer
breath
increasingly
exhib
crowd
pages
rout
##cil
##iat
theater
##encies
stim
ali
driven
plane
prote
infin
diet
review
failure
surprise
tomorrow
washington
satell
whom
wearing
thinks
empt
attach
opened
##airs
charles
perfectly
constantly
separate
electrical
dial
pounds
sau
##vant
##wide
##reg
quiet
##igr
alt
##ortex
##ager
clock
coal
factory
highest
harder
signal
survival
independent
mexico
dress
mothers
##ica
shif
load
mak
sport
##pping
unless
tag
disp
##ensity
##aker
20th
bush
corruption
##ruction
dimensions
volunte
intellectual
pac
tick
van
##gment
##oses
peak
##iff
saf
##apers
resource
explan
advantage
universal
operating
illness
currently
filled
weapons
ordinary
francis
rural
##und
##hab
##fish
inform
weather
soil
exer
##emy
blow
transformation
setting
motion
voices
illustr
origin
drawing
experts
galaxies
document
tumor
35
ein
hidden
sen
##zil
##erves
worried
teles
veget
precise
closed
arts
succeed
steps
investig
caused
leadership
leaves
heavy
fossil
artificial
cosm
equivalent
battle
##pid
##iors
##uries
abst
exists
intr
compared
agre
implic
contract
##issions
suppose
signals
equal
paying
brazil
european
dinner
islam
debate
shapes
vehicle
garden
einstein
mat
##ael
##aurs
##tain
##ino
repl
##entally
stock
spr
hasn
designing
planning
marri
businesses
sexual
horse
lady
faith
japanese
entrepreneurs
pip
wave
##set
##head
bees
rein
recon
ants
shut
##agers
invited
muscle
warm
valley
continent
limited
shoes
circum
expression
negot
viruses
99
dip
holes
mile
names
##ov
##dy
##yl
##ham
##illed
grid
puts
##grad
organized
anti
convention
producing
malaria
described
mentioned
strategy
jack
kore
##ta
thom
##enn
ange
shall
worldwide
##ibr
feelings
transition
generations
collective
essential
covered
multiple
dinosaurs
mart
##rie
##ked
##bble
##osing
stone
liqu
prime
tex
spring
##cipl
perce
fell
prefer
partner
advert
bits
appropri
valu
curious
keeping
steel
interaction
lifet
britain
distribution
dynamic
michael
##craft
45
nur
##oo
##essel
inner
lift
##anted
##cking
plus
disaster
phones
##elling
technical
england
##ocol
treated
killing
radical
feedback
emerging
launched
cow
date
gap
homes
pian
##care
##iency
##hi
##asion
pray
canada
extend
myth
aging
interface
minister
finish
stupid
coral
sites
sugar
honor
spectrum
losing
associated
display
grandmother
due
nerv
pil
rat
##pan
##vent
##hold
refer
stun
##ams
##tered
chain
##acle
##aked
belong
lawy
northern
army
concl
details
consequences
democratic
chicken
assemb
library
vessel
##oh
##lin
##do
init
atl
teeth
##ipment
poem
letters
player
equipment
eleph
neuros
surprised
limit
movies
awful
chemicals
budget
trials
announ
pleasure
roughly
department
3d
fal
pun
wit
##col
##ae
##iot
##ns
reform
lie
frustr
orch
##eline
suit
studio
importance
consumer
practical
estab
##iques
ca
kick
pak
##igm
myst
users
decl
recy
lessons
leader
auth
##pected
dealing
chemistry
soldiers
molecular
nigeria
pakistan
james
lect
##pet
##mber
##lom
spin
hadn
##elly
colon
cultures
glam
george
##roph
protection
status
management
property
mortality
kilometers
fis
gang
nav
sight
##rest
ing
weak
haw
qual
stood
##erson
whereas
acqu
underne
thoughts
gravity
biom
possibilities
married
researchers
effectively
cutting
##ipping
selling
clinical
kenya
australia
empty
liquid
underneath
categ
kitch
tall
wal
##ox
##oes
##etics
##cend
lies
asp
chimp
congress
##ushing
##cip
unp
twitter
disc
dish
flies
specifically
paral
encoun
silk
mountains
arrived
reaction
daily
battery
nervous
wars
##rict
##mission
initi
height
saved
unex
club
calling
smile
factor
##forest
evolutionary
hung
affected
variety
construction
controlled
sharks
encourage
sophistic
jan
vote
reef
spoke
compl
manip
impl
##ension
patent
fewer
advanced
picked
winter
considered
suggests
mathematical
##point
odd
analysis
organs
folks
thomas
valuable
ends
gift
pin
rub
rates
tan
tap
##port
##mar
##bre
##ara
goals
prove
##acters
pregn
buying
ideal
scene
techniques
surf
invention
characters
extract
existence
awareness
relatively
alternative
newspaper
600
dots
ru
sources
##rument
##zing
##edic
cha
##estic
##abet
desk
instrument
players
repub
typically
photographs
convince
mathematic
employees
axis
concentr
pacific
lifetime
lic
wat
##ka
##zed
thir
toile
##encing
trillion
##rof
solid
195
metal
generate
define
diam
radiation
explains
identify
privile
efficiency
experienced
sweet
comfortable
epidemic
75
gay
nar
nasa
pow
##ux
##osition
##aled
##icing
##ament
##olves
shad
##odes
user
perception
##ago
root
scen
medium
waves
testing
assign
sentence
snow
primary
houses
restaurant
wikip
abstract
marriage
circumst
diplom
kitchen
und
##ca
##cast
thin
conver
theme
union
discipl
brothers
serve
eastern
videos
hyper
occup
represents
circuit
ladies
flex
astronom
renew
graduate
vulnerable
credit
safety
republic
ber
eld
pure
vert
##mas
##ught
##lation
##ij
##bors
##icy
uns
bran
##rove
driver
personally
2008
clever
environments
marketing
deeper
windows
risks
director
promise
definitely
introduced
prepared
properties
harvard
exchange
witness
gain
oct
wine
##kn
##ctions
##oking
mand
ens
compar
unit
unus
contain
emissions
minim
connections
processes
behaviors
facing
struggle
laptop
convinced
proteins
establish
wikipedia
alex
bare
cere
py
vag
input
##orous
##itals
liked
sending
shar
##ulating
maps
pole
contem
##berg
naturally
mush
generally
visible
swed
wondering
senses
requires
carrying
cooking
mistake
cartoon
21st
germany
official
survey
forgot
politicians
bat
cast
sir
##cers
##gets
##anze
isol
reven
forced
dogs
goods
command
crim
instrum
centers
solved
march
watched
location
collapse
bottle
expected
sympt
psychology
broke
received
analog
hurt
applied
components
penguins
chimpanze
unusual
hits
ip
nest
rit
##za
##itarian
style
##iev
poetry
robert
court
carefully
digit
pulled
critic
domin
burning
inevit
framework
ancestors
opinion
22
aug
cortex
gulf
mim
tent
##oll
##uits
##gers
##rete
##lement
bee
##aren
bubble
percentage
consist
194
musical
computing
runs
blocks
member
advent
pollution
passionate
laboratory
collaboration
aston
disappear
discussion
mosquit
exploration
francisco
exercise
ingred
cub
dut
##nes
##han
##osis
sem
shame
chart
notes
interests
bio
healthcare
southern
steve
empathy
profession
destruction
horiz
hotel
hospitals
rocket
mirror
mistakes
hydrogen
length
hol
les
##car
##ingu
yout
##stream
quarter
stan
frog
string
transpl
reprod
internal
added
autonom
wake
confidence
tests
situations
violent
depends
##porary
linked
neighbors
birthday
introduce
hoping
innovative
encoura
inspiration
channel
interpret
satellite
explanation
negoti
sophisticated
23
cards
ought
ride
sides
##ouds
##rel
##esh
##urb
upper
##ogram
facts
polar
solving
virgin
closely
embarr
dropped
error
budd
capture
microbes
piano
youtube
embarrass
cath
hill
las
lens
pad
ring
##rom
##lines
thick
wel
spider
unkn
resil
overwh
gras
powered
mont
extinct
movements
subs
regard
marine
##onym
severe
traveling
entertain
eggs
ridic
administ
tracking
taste
therapy
orchest
overwhel
fib
il
jer
jul
tons
##cap
sees
comment
atoms
exec
aff
coord
adj
factors
afterno
instruct
former
singing
courage
2000
stret
absor
sunlight
presentation
recorded
reached
include
obser
satis
meaningful
activities
clinic
infected
transportation
wireless
season
mushroom
bath
cure
fert
lying
nurs
##mp
##wor
##iture
reverse
max
claim
resc
remo
asks
skill
##ographer
productive
educational
antib
combination
portra
sample
dynam
electronic
quantum
rhy
split
dere
##mon
##uel
##ih
##dp
##ered
##inction
##lying
##keys
##iring
dece
##umps
plans
wherever
genius
joke
conserv
formed
2007
topic
amounts
technological
sensitive
falling
occasion
religions
cameras
shaped
occurred
harvest
paradigm
dramatic
vaccine
conclusion
dedic
fake
gdp
tape
tube
##lands
##cel
wash
##amin
##illing
span
##abled
diss
##athers
ears
explos
economists
defined
teams
operation
protected
performing
stronger
release
fundamentally
golden
manufacturing
muslim
algorithms
surgeon
tonight
circumstances
afternoon
bost
bicy
fishing
gut
gree
sets
##ole
##ita
##ula
outcome
acting
##ogue
ages
clip
clouds
drives
technique
strang
globe
increased
architects
cyber
roads
combine
pollen
divide
##iption
##llywood
accurate
pocket
appropriate
bones
gy
honey
pump
ts
zone
##oft
##metry
##ener
##eness
##ald
staff
loop
##abilities
##ucing
decline
creature
conservation
polio
##ternal
curve
confront
label
defense
soul
depth
footprint
existing
falls
behavioral
relevant
astero
swimming
gentlemen
rapidly
fifth
unexpected
boston
dot
furn
pill
rw
sar
vibr
##oint
##bage
##inations
beg
bell
##amb
##ille
##abol
poly
phr
##acing
apparent
corres
signs
memor
advice
literature
option
250
volume
measured
combined
flowers
continued
romantic
doubt
unknown
der
mere
ped
pair
pitch
rational
ze
##ey
inject
whist
##entic
##sters
storm
prost
##olving
atom
chic
excell
sphere
plate
##ortion
##cience
sahar
perman
feature
features
clothes
underwater
evening
gray
remain
funding
storyt
centuries
engaged
19th
meter
election
regions
younger
wondered
milk
trend
sustainability
authority
participate
frag
scratch
spiritual
determine
philosophy
bes
border
cens
du
hide
ii
##aver
##rus
##20
inher
##isters
reference
sept
##adic
peer
mac
intense
worlds
prem
##athan
monkeys
elim
busy
presence
corn
keeps
paris
physically
treating
assist
challenging
collection
options
records
islands
script
nutr
applications
narrative
horrible
conventional
instruments
icon
ment
raw
rush
##ras
##van
##hr
haiti
chocol
##ession
alph
shell
roots
##rovers
writer
insur
transfer
slides
classic
largely
deaths
irr
conclud
dancing
transformed
subjects
lifest
songs
mechanical
fingers
printing
flew
selection
component
accompl
embrace
unclear
mystery
chicago
september
dense
lake
nose
wired
##cal
##hen
##time
##itors
##icip
trig
expon
pharm
scar
simplic
remains
designs
traged
recom
handle
messages
operate
causing
villages
concrete
admit
heroes
latest
tort
2010
murder
obsessed
ritual
entertainment
stretch
simplicity
bay
cents
gest
lou
oly
pink
ric
sin
till
##over
##off
##hal
##asm
stands
hem
section
fro
tea
tri
##iel
somewh
phase
obama
shoulder
relate
bike
##azz
hook
airport
breed
figures
films
directions
concert
constit
concepts
estim
diagram
victims
inspiring
rebu
recyc
paralle
olymp
somewhat
27
iphone
peter
rab
##pes
##my
##ding
##vi
##father
##nda
##orter
##ota
##utation
prices
neut
neither
fright
##iled
##ums
disorder
pool
desper
boom
flash
africans
earthqu
rooms
parking
geom
deploy
explained
collected
potentially
improv
feeding
released
celebrate
titan
jeff
frankly
sculpture
zoom
navig
70s
boring
dust
wing
##vin
##talk
toxic
delic
myster
knock
actions
##ologically
bron
olds
generated
functions
walks
2005
tedtalk
greenhouse
symmetry
recording
identical
multi
boxes
constant
conversations
magnetic
entrepreneur
housing
##iosity
dolphins
telescope
illeg
60s
cup
dir
gps
lung
papers
rig
##uge
##greg
##esity
##icide
button
##anta
enable
plug
adam
flor
obesity
finance
lovely
careful
charity
connecting
breaking
embedd
paintings
vehicles
resistance
hypothes
chapter
infinite
implications
false
dh
jelly
mall
##nic
##esome
whales
weigh
stack
##iders
##child
##imeter
shake
##uses
acts
clay
coin
lets
smoke
persu
decre
flower
owners
instinct
exploring
repair
classes
tested
equation
limb
consumers
stayed
required
awesome
kingdom
bombs
logic
title
russia
puzzle
candid
commitment
rhyth
furniture
density
fan
vital
wings
##iop
##da
##bby
##nel
toler
##itz
##ctic
liver
ash
chose
chip
france
##ests
proced
outc
##unt
tack
explo
disorders
implement
scared
##akers
contrast
processing
allowing
surely
measuring
chrom
interactive
existed
silic
hunger
balloon
divided
islamic
christmas
distributed
automatically
chocolate
embedded
800
cord
dict
jail
pace
##ooth
##can
##cence
##hol
##well
ther
item
##etically
dozen
##aming
chief
meg
##rous
cock
sheep
imper
stri
flag
joined
monkey
grows
economist
prescr
opposed
statement
##aneously
faced
facial
mechanism
optimistic
copyright
dramatically
fabric
uganda
adopt
##connected
pregnant
symptoms
astonishing
jim
ol
tank
yield
##eared
##rors
##kind
##bits
##va
##oster
##edy
##iters
##uting
anx
##tery
##orest
orbit
congo
tro
nowhere
##iform
spoken
happier
disg
controvers
herself
carried
remove
lighting
particle
economies
reduction
accum
productivity
autism
##iox
devast
gender
rising
providing
arguments
##heim
ethiop
immune
judge
tricks
physicist
recovery
partnership
queen
intuitive
texas
vessels
authentic
pyram
dirty
26
os
sque
voc
wise
##mal
##bra
##yal
##rets
##oned
##anthrop
##itory
##etch
##entions
golf
ate
knee
actor
##aret
manh
##agn
poorest
spell
##acles
score
struck
bless
obst
colum
plays
curiosity
standards
advance
increases
collaps
delight
illusion
flood
depending
synthes
breathe
heaven
uncertain
microscope
surrounded
ghana
alien
transplant
36
dign
diction
hi
jon
loud
pour
##ek
##ua
##nday
aside
orient
ours
enemy
sacr
wanting
resolution
letting
##phones
##icted
glad
painful
secure
elev
meetings
symmet
grandfather
psychological
origami
silence
entered
touched
synthetic
translate
samples
palest
uncom
savings
latin
hello
muslims
appreciate
incentives
toilet
sweden
lifestyle
rebuild
outcomes
chromos
silicon
aqu
bos
bible
diox
fiber
gates
nit
pand
pushing
##oons
##bles
##qually
beer
hack
output
usual
intention
sac
##ardo
clust
poison
bold
commod
smooth
afterwards
2009
interestingly
paraly
distinct
properly
funded
reaching
friendly
inspire
floating
telephone
promot
mainly
virtually
disappeared
drinking
journalist
wheelch
algorithm
##force
habitat
destroyed
attached
agreed
derek
frozen
32
cab
cash
dow
equally
fulf
hat
nic
ven
##ris
##uous
whale
##lyn
champ
orange
placed
rocks
granted
emph
offers
blank
flip
193
extent
muscles
datab
grab
filter
diabet
household
craft
limits
psychiat
eradic
tasks
pupp
offered
angle
assume
motivation
vulnerability
application
academic
exhibition
precisely
korea
advertising
pilot
fisher
adjust
illegal
disgust
diabetes
700
cod
na
nets
pile
rang
##bed
##val
##vas
##wich
toy
##arant
reject
abund
cham
##raction
dear
##aus
##inder
proof
##usive
plenty
manif
agency
##udes
overall
backwards
adoles
download
metabol
hardly
organism
2004
governance
populations
passen
distant
agenda
poster
presented
raising
footage
practices
photography
domestic
breathing
attacks
fixed
appears
angry
council
suspect
##fficient
shooting
tower
lecture
chaos
rwanda
phrase
parallel
earthquake
dioxide
ain
aim
bf
gig
horm
migr
tight
##uate
inch
##iday
##iment
##ola
chest
plot
unbel
nobel
arrest
brib
##aks
schol
probability
educated
globalization
##crim
##otech
amazon
provided
robotic
sales
talent
thrown
controlling
linear
federal
appeared
corporate
maintain
prototype
elephant
stanford
bicycle
tragedy
triang
65
95
jes
ly
##pass
##aves
##war
##inals
##esthes
##leton
##ida
##okes
tries
##ifer
##usions
disag
##acular
contains
humor
scary
guide
oldest
fuels
minor
behave
cambr
signed
legacy
eleg
anticip
refuge
provides
neuron
##attan
represented
purch
spreading
salt
estimate
oxford
transparen
links
rainforest
catast
fascinated
liberal
consequence
frequency
martin
atlantic
january
license
privilege
shadow
welcome
manhattan
transparency
ack
dur
dop
gon
ros
rail
wip
##kins
##viet
theore
##ndr
##nded
##oust
ink
youth
recip
soviet
stable
aband
spots
seek
##aint
units
overcome
firm
adap
guard
obl
opens
personality
imagined
##while
adding
cheaper
millenn
emergency
higgs
capitalism
apartment
spectacular
calculate
forests
innovations
fortune
microsoft
customers
sports
encounter
sharp
unbeliev
nin
rice
tub
##och
##cut
beet
##ione
##sey
##opher
anonym
seats
conven
yours
suicide
unh
willi
twe
reson
farmer
skull
reputation
secondly
regret
curren
photographer
district
hearts
memories
retire
football
accessible
darkness
includes
winning
recognized
industries
philanthrop
saturn
describes
searching
conflicts
automob
demonstrate
##iveness
historical
weapon
beliefs
aspects
ugly
ridiculous
apparently
manifest
cave
cott
drove
hen
hans
lun
##nam
##rect
##onic
##omy
##lets
shirt
conce
mail
enth
upset
compos
leather
clar
buck
poet
smith
carol
guarant
involves
monitor
attrib
caps
capita
foods
2003
passing
morality
musicians
trends
landed
explaining
collecting
viet
recognition
##ended
dimension
achieved
sandwich
sticks
improvement
crying
inequ
terrorism
tribes
boundaries
fortunately
athe
volunteers
narrow
powers
chimpanzees
maxim
permanent
recommend
pyramid
dignity
wheelchair
28
borders
cable
gand
mi
naked
pione
##case
##mm
##lies
##life
##arters
##stage
anthrop
neural
attend
sheet
fool
##lock
emer
finds
flour
elections
accidents
elsewhere
sixth
##box
continues
excuse
drawn
crack
antar
speaker
speakers
##archy
traveled
facility
constrain
textbook
christian
contribute
cryst
integrated
mammals
surfaces
thirds
laser
orchestra
removed
90s
award
bure
borrow
cute
ooh
session
##maker
##uity
##la
##bally
##now
##tical
##ato
##itudes
##ari
stere
leap
expans
evolve
##cond
drill
genoc
colony
relax
transcend
engaging
trag
##aws
organize
reduced
2006
aircraft
publ
margin
discoveries
legis
refr
escape
architectural
consume
produces
volcan
fears
layers
ultra
amongst
concern
depressed
colleague
electronics
baseball
dinosaur
ignore
hanging
ecosystems
intrig
angeles
assembly
initial
vertical
vagina
ingredients
dynamics
dedicated
trigger
##heimer
ethiopia
sacred
emphas
80s
aer
bin
hip
hire
hub
lux
mate
punch
tes
wander
##cons
##uum
##fall
##osen
rely
stations
##opy
likes
chosen
fruit
trash
outs
enh
exped
bug
phosph
committed
realm
traject
smallpo
2001
researcher
advoc
silent
pulling
emerged
##going
functional
vacuum
stores
returned
separated
debt
receive
affordable
utter
cooperation
##riend
extended
satisf
nurses
rescue
smallpox
aes
cas
dump
fiction
tied
wol
##under
##iance
##bar
##tes
##zheimer
##era
##ini
inh
##oran
##orus
##lete
wet
ford
##keep
anger
sel
butt
##illy
conve
locked
alzheimer
howard
##ela
lee
worker
aggress
arctic
acid
##roke
underground
underlying
scott
invite
consult
artistic
traum
native
bias
openness
globally
cheese
controls
focusing
sensory
grandchild
communications
extrem
predictions
policies
reported
fluid
determined
agricultural
skept
unlikely
jewish
repeat
briefly
nurt
resilience
excellent
conclude
cambridge
bars
june
lit
rose
tired
wid
##ault
##rier
##list
##ville
##zan
inches
##utical
##stand
##through
##ads
##ulse
loves
outer
##usi
##izoph
clients
twenty
bull
bubb
strip
crick
instant
schizoph
mining
subtle
headed
proper
geographic
treatments
universities
opera
interacting
breakthrough
observ
observation
transparent
ethical
ethnic
reports
strategies
efforts
engagement
gathering
paradox
rarely
fabulous
diverse
repeated
makers
senior
lawyers
neuroscience
announced
strangers
florida
acknow
emerge
bureau
gam
mt
ng
sed
tip
wra
wil
##rical
##ket
##erved
##arre
##think
external
deaf
lock
sav
##emen
comprom
exposed
##aceutical
##agger
bucks
scream
commission
incident
ending
##ails
founded
hardware
hollywood
regener
settle
classical
killer
audio
steven
radi
holds
protecting
interactions
photographed
##apping
males
disappoint
palm
daughters
surprisingly
dependent
injury
adopted
trucks
seeds
route
shifting
originally
instructions
fertil
asteroid
nutrition
##esthesia
bats
cous
eric
fract
jam
kb
kiss
nerve
picking
##iogen
##top
##fast
##osure
##alian
##eda
##eday
gore
neat
someday
degrad
orph
spark
actors
arrow
parties
phant
##iban
syndr
##ishment
persist
imaging
organizing
parli
gla
propos
painted
operations
120
breaks
circles
burst
lifes
variation
sleeping
dawn
reminded
optimism
laid
tuna
prepare
methods
prosper
climbing
teenagers
##copes
nurse
aspir
hungry
barely
##capes
insurance
richer
bronx
gonna
biz
jose
luc
mig
mice
pound
rod
tut
ubi
##pa
##night
##nders
##organ
stages
doz
##oked
spinal
##agon
##agen
crops
flows
##ighter
articles
191
highlight
subway
forming
proto
figuring
memes
views
nonp
failing
essence
predicted
suggesting
promote
domain
buried
crossing
characteristics
captured
collaborative
miracle
susp
reminds
tumors
garbage
##flies
dolphin
fortunate
reconstruct
perceive
initiative
forgotten
revenue
criminal
tsun
pharmaceutical
schizophren
parliament
85
dile
dough
piz
tony
##aust
##di
##ba
tooth
italy
sty
stroke
##amine
whatso
abuse
chron
##ulum
decent
trop
spa
intim
leverage
##ache
grat
mayor
writers
earn
owned
served
edges
grace
biod
biologists
##aze
visited
reducing
charl
curric
disturb
proportion
confident
missed
expectations
expectancy
sensors
supermark
traditions
arrive
1990s
leaf
graphics
pushed
expanding
symbols
skelet
shelf
analyze
pursue
lawyer
discipline
flexible
contemporary
administration
occasionally
begun
jellyfish
uncertainty
downt
henry
grandchildren
syndrome
bizarre
nonprof
whatsoever
hitting
sisters
silly
tears
wider
yo
##ober
##ria
##wr
thresh
theories
##esis
##ashing
recess
##igation
shore
upd
export
##agos
arth
newton
coach
scales
scores
caring
offs
simult
simulation
owner
##ressed
pointed
slaver
serving
extinction
warning
protest
regime
##inson
stops
robust
kills
successfully
##adesh
portion
graphic
delivered
detection
fraction
accepted
taliban
pigs
1960
struggling
skeleton
shelter
replicate
substance
glamour
glamorous
qualities
scenar
branch
october
dominant
explosion
paralyzed
genocide
phantom
dozens
dilem
threshold
slavery
ba
cert
cats
dun
fer
gate
gorge
hind
hors
hier
jet
josh
mri
rio
rats
sits
tam
tong
tatt
vit
veter
##pal
##ups
##west
threw
##ata
##ora
quad
chop
meal
mapping
##ateful
##using
agencies
pretend
partly
##icks
realizing
involve
helic
imagery
tracks
mode
crew
computation
capability
elected
soup
programming
experimental
measures
##mingly
identified
statist
hunting
egg
affects
homo
homeless
1980s
halluc
turkey
blogs
diagnosed
garage
shopping
surgeons
restaurants
insights
intuition
shrimp
inevitable
hypothesis
unbelievable
unhapp
currency
enthusi
trajectory
33
cig
mud
nom
tear
tie
vel
##obi
##ray
##ril
##iences
##bl
##gl
##yard
##wl
##othing
##omp
##asy
whis
recept
##chron
abra
neck
neander
plain
##apor
##ares
amate
perpet
permission
moore
indo
bob
lethal
smarter
##uces
endanger
highway
attitude
generating
homework
redef
weeke
glor
##imately
proposed
devil
winds
tempt
description
fastest
robotics
entering
brook
mechanisms
panels
expertise
miser
methane
citizen
banks
##ecd
airplanes
tribe
shocking
resistant
guns
elementary
impression
institutional
spray
initially
rhythm
passenger
jesus
dopamine
cotton
phosphorus
helicop
neanderth
cake
dy
dive
drew
fet
fits
kar
pm
rope
sink
tone
##uff
##gence
##hm
##toc
##ati
##isa
##icious
bend
bears
render
stom
anat
butter
chim
##umin
alco
suck
##ostic
##astics
leon
##mented
##ague
febr
prec
arist
cla
disrupt
##ptions
genetics
genetically
county
blame
joe
joint
##ocr
fung
entrop
paras
##rients
trains
innocent
empire
breakfast
staying
engineered
civilizations
suggested
spreads
exception
wheat
translation
magnific
immediate
continuing
odds
oxytoc
mixed
manufactur
russian
pockets
dialogue
ticket
waters
ensure
merely
saharan
fragile
exponential
mysterious
pandemic
expansion
ubiquit
tsunami
biodiversity
alcohol
february
oxytocin
bother
bored
dies
duck
dung
eve
ram
##iety
##down
##front
##inarily
##atar
sevent
##olic
##adays
shan
shit
nowadays
spons
enlight
cliff
interf
interior
brian
gotta
##angible
##eller
builds
insul
preserve
connects
marvel
physi
remembered
discovering
located
treas
bottles
supported
improving
sentences
keyboard
enterpr
compassionate
ceiling
facilities
preval
array
synchron
gradually
primitive
primarily
damn
delivery
significantly
tissues
bangl
terrorists
1970s
lincol
reveal
channels
vegetables
##iotics
tanzan
elderly
ipod
professionals
interpretation
subsid
prostate
besides
uncomfort
tragic
curriculum
ubiquitous
lincoln
bol
bust
cows
diving
fest
fusion
junk
jih
nick
pir
rb
rays
wedd
##rich
##mitted
##dam
##vest
##walk
##fr
##onge
##itan
canopy
comedy
convert
##umines
alb
spont
##unction
plastics
sup
uniform
##ghai
##izer
eval
agent
armed
##iac
needle
deserve
instantly
monit
terrain
editor
recru
subt
electrod
redwood
charges
distingu
restore
choir
legit
##lessly
investing
grandp
summ
eaten
##liest
impacts
ecological
flowing
covering
johnson
immense
translated
phenomena
judgment
prisoners
rolling
inventor
jumped
historic
conducted
crucial
mcd
##burgh
established
buddh
absorb
december
conservative
geometry
squee
dictionary
##otechn
bubbles
glaci
protocell
pizza
endangered
bot
boss
boun
dys
fathers
gaps
jar
jane
jugg
jazz
koran
ner
rivers
##bled
##ship
##ounder
##reh
toys
inhab
##omics
onstage
stability
##ura
##che
##chem
##opath
comic
spill
##allow
manual
aggreg
precious
clothing
twist
coke
dism
acoust
drum
drivers
carpet
sciences
extension
completed
farming
subur
handed
holy
contrad
demographic
swiss
signature
magical
assess
audiences
delhi
expecting
arguing
approx
cyl
dropping
unfold
burden
closing
intervention
tendency
wildlife
documents
nutrients
physician
chairs
profoundly
gentleman
accompan
puzzles
penguin
routine
informed
cosmic
reinvent
category
reefs
isolated
mimic
mosquito
dutch
horizon
grasp
fibers
portrait
greek
correspo
procedure
downtown
gorgeous
abraham
entropy
shanghai
insulin
jihad
grandparent
cro
hipp
ib
jac
kh
lg
pale
toss
##rix
##mates
##lv
##vy
##ses
##hh
andrew
##onia
##onald
##enh
infer
ingen
##asters
##ette
##ctica
stab
forb
cancers
shots
##oded
meme
orb
##ifice
##apy
##emp
compelling
percept
fox
grateful
remained
remaining
##tending
transmit
pointing
planes
biologist
##cycl
profile
musician
positions
geor
50s
steam
objective
##aneous
revol
stephen
terribly
motors
voy
supporting
occurs
silver
request
hunt
prevention
screw
arrange
appearance
participants
glasses
annual
infection
assumption
assumptions
philosopher
crowds
academy
attractive
sauce
altitude
maker
frustrated
mathematicians
comparison
analogy
august
##working
spanish
tackle
database
tubes
inequality
antarctica
ngos
simultaneously
ak
bind
dent
dil
dumb
gear
hong
lam
nerves
tune
wound
##onds
##aving
##rot
##lson
april
##orage
##itate
quit
stones
storage
gods
comics
nelson
chances
deception
lean
feyn
interconnected
brid
bond
strike
counting
decor
basket
colored
insane
funds
helpful
elite
sketch
presents
formal
contrary
chef
propag
selfish
labs
continents
excl
freely
stepped
harness
cycles
strongly
fires
ceo
approaching
similarly
privacy
detailed
activist
wheels
panel
printed
representation
luckily
correl
association
despair
tunnel
gathered
laughing
ambig
shrink
ratio
elephants
hawai
adventure
ownership
cabin
scholars
adapted
orphan
uncomfortable
feynman
55
fought
gif
jones
lord
pause
sulf
tale
zip
##de
##bow
##bul
##bie
##view
##hop
##oning
toes
beating
##uther
stake
##cher
prol
chips
##umes
##umber
proven
spain
encycl
immers
##emics
leop
clint
client
sheets
##quis
carl
offices
guid
relief
kevin
engines
believes
192
traits
2050
ski
woke
generous
healthier
demands
headlines
profits
distract
socially
glue
tedx
confused
answered
tempor
lowest
improved
versions
irre
included
reactor
closest
experiencing
targets
offering
infections
constructed
demonstration
independence
scanning
wealthy
teenage
assemble
gallery
laptops
pursuit
empowered
stimul
dressed
intrins
assignment
autonomous
palestin
anonymous
vietnam
refriger
wolf
convey
bangladesh
##otechnology
encyclop
ell
hired
lap
mary
yemen
##yan
##jamin
thus
##esign
##isy
stir
##irm
seal
pride
shir
shine
chat
friday
##gend
excess
peers
enabled
ups
unse
unable
brut
royal
incor
technically
fluct
columb
reliable
patents
foundations
smallest
biol
biosphere
supplies
formula
2002
valid
planetary
viral
gee
challenged
steal
namely
harbor
terrifying
invested
barrier
performed
beneath
urge
circuits
satur
ecology
expressions
ultras
competitive
daniel
transforming
dominated
immun
authorities
participation
benjamin
uncons
worrying
physicists
wooden
widely
prosthetic
arabic
harmony
volunteer
telescopes
matrix
perceived
limitations
scenes
mandela
atomic
torture
hemis
recycling
neutral
delicious
anxiety
william
expedition
joshua
tongue
unhappy
cigaret
magnificent
dub
fallen
fancy
gained
hut
kir
lone
nu
nap
tib
wrap
zones
##oe
##iate
##ties
##reced
##ona
inn
inex
##ala
##aland
##itar
##icial
beij
##etric
ongoing
stair
sew
prince
##aded
cher
tends
enables
##aine
intensive
sunday
##arest
amy
interven
reserves
disabled
overl
mold
brush
##otherapy
smoking
creator
recl
grave
capabilities
animation
curves
marath
passive
educate
##neys
proposition
restrict
##otted
choosing
devot
excit
hybr
radically
investors
predators
symph
approved
personalized
iceland
destiny
nearby
medicines
compete
balls
extraordinarily
soldier
threats
threatened
package
influenced
landscapes
purposes
reflection
achievement
iranian
broadcast
nuts
surrounding
reveals
impressive
newspapers
previously
incentive
unpreced
mathematician
branches
encouraging
antibiotics
troops
column
collapsed
guarantee
publishing
nonprofit
grandparents
clinton
biolumines
unconscious
unprecedented
29
350
cree
cass
ech
fate
file
mike
mesh
nam
rent
ss
sale
santa
tiles
um
via
wires
##rate
##makers
##bod
##bling
##nis
##hy
##wind
italian
welf
##oline
shout
shakes
worms
##ilize
pear
peoples
loose
knife
proceed
seeking
yourselves
ampl
shepher
resem
disability
##road
indones
herit
smiling
wright
factories
earliest
remix
sched
insist
huh
readers
larry
hardest
spacecraft
corrupt
##geries
redesign
connectivity
camps
seti
marry
parach
badly
##ashed
infl
amazed
propose
defic
##riers
deliber
listened
speaks
sensation
embry
civic
observe
printer
strands
responses
visualization
affecting
errors
consciously
mechanics
remarkably
suffered
burned
victim
tension
nano
dragon
voting
simpler
blowing
illustrate
replaced
texting
neuroscient
colonies
categories
implant
renewable
minimum
virginia
bathroom
alpha
coinc
decrease
obstacles
bosn
catastroph
theoretical
lungs
dilemma
miserable
aristot
tanzania
bor
batt
dv
foster
jaw
july
ot
pc
pit
pier
sna
tact
uh
##eon
##ki
##gments
thread
##aters
##itating
##oma
rehab
rethink
##stone
stew
static
dood
##ading
shy
ships
##illance
##iler
##umble
loan
enem
intensity
unemp
lever
##abul
coch
covers
##aches
overhead
backyard
##seless
scot
scans
genu
strict
##orden
##ighth
##ava
##ression
helium
kidney
slums
trace
numer
mini
minus
metric
attitudes
camel
girlf
##boo
locations
secrets
calories
membr
marketplace
equality
shortly
summit
failures
illum
psychologist
psychologists
approaches
mainstream
competing
posted
emergence
1990
bedroom
divor
parks
magnitude
packed
angiogen
calculus
electrons
cartoons
2011
historically
bulb
officer
shocked
classrooms
neighborhoods
narratives
additional
bono
##copic
substant
##ulsion
bags
agreement
stunning
diameter
consistent
storytelling
disagree
elegant
automobile
luxury
cricket
welfare
unemploy
cube
dirt
gases
jung
kos
lingu
mol
mumb
pants
rick
rating
rings
si
tin
##mo
##uk
##uci
##lings
##gent
##gie
##fo
##fin
##xual
##itated
reci
strain
##char
doors
##ima
healing
meals
##illa
fried
##ilty
deals
loving
align
enzy
upload
sail
safer
comparing
##active
unle
leban
##izz
##izers
nove
donor
evolving
clue
interrupt
##ipts
reserve
lottery
indig
boats
realistic
strings
surgeries
blown
##rence
flick
playful
relation
artic
1900
miner
##licit
grabb
teaches
demo
cultiv
glow
calm
equations
follows
absence
microph
millimeter
cuts
sensor
summar
squid
winner
origins
bills
drawings
predictable
estate
peaceful
mobility
surgical
electrom
straightfor
denial
turk
throwing
contributed
preparing
motivated
interviewed
israeli
applying
switched
honestly
taxes
nigerian
correctly
cruel
corporations
installed
bowl
succeeded
concentrated
inevitably
horizont
embarrassing
portraits
navigate
candidate
sacrifice
chamber
convenient
retirement
philanthropy
intriguing
selves
proposal
joseph
schizophrenia
recession
leonardo
wedding
cylinder
excitement
enemies
recipe
straightforward
bam
bern
founder
kle
kam
lion
nich
pills
sized
ward
##pie
##power
##equ
##aid
##lim
##kward
##nut
##inging
##isons
habits
##ado
##ador
conqu
albert
probe
outdo
spare
##pper
intent
compreh
tables
exposure
manner
sometime
interse
buff
moz
accent
ads
undergrad
crop
flavor
schem
meanwhile
courses
transmission
##peare
recall
cape
visually
register
sett
distances
reasonable
##cript
condoms
advances
retreat
retina
friendship
delay
difficulty
temple
temporary
picks
surviv
shoe
prediction
medication
hunter
##ascular
transformative
awkward
ridge
tasman
bacterial
reactions
division
laden
fault
accounts
hopeless
fragment
calculations
folding
occurring
enjoyed
interviews
victor
ignored
customer
surveillance
batteries
microbial
jewel
defend
watts
1950s
renewables
contempl
tenth
mushrooms
gesture
breeding
frightening
adoption
devastating
carolina
aggressive
compromise
supermarket
skeletal
horses
helicopter
stomach
claims
seventh
shakespeare
genuine
electromagn
bm
bip
dating
erect
fid
fence
hint
kong
lions
nathan
pitt
sons
ties
vivid
##pond
##cure
##aa
##rid
##field
##ja
thumb
##inery
##onaut
##ancing
rever
rewards
ster
##igur
anten
anno
##erey
canad
nearest
congest
likeli
lobby
##ifact
outbre
upside
##heres
##orted
intact
intended
sufficient
##asty
lew
explicit
resolve
residents
mood
kindness
contam
##rover
index
grades
drown
scaff
realization
##pled
wrist
humanitarian
guilty
systematically
##iances
obese
artwork
artifact
believing
farms
halfway
passage
param
amazingly
structural
masses
digest
psychopath
consumed
communicating
embod
pencil
approached
deadly
promised
favorites
variations
hopes
enjoying
mindset
17th
secretary
selected
scanner
1960s
destroying
pleasant
doubled
boundary
juice
##etti
venture
spinning
diplomacy
monterey
regardless
estimates
items
striking
nitrogen
legislation
wandering
inhib
bridges
encyclopedia
indonesia
november
likelihood
scaffold
48
binary
dick
eb
gur
iv
ire
jay
ky
pic
rib
sne
tu
tid
vice
vary
##py
##east
##away
##rane
##min
##mony
##ias
##iated
##nik
##ga
##hand
##wa
##osity
##ani
##alog
##oric
##eds
##arians
##asive
rect
##etown
sole
stored
##ching
livest
shred
neoc
alarm
themes
everest
legend
perip
coc
coat
coverage
firing
brows
contest
underest
goodby
gross
##pless
genomes
crimes
crush
transist
##alend
marrow
glimp
topics
locally
literacy
nonvi
predator
barrel
cyrus
reaches
penn
penet
feeds
survived
suggestion
campus
drops
ego
damaged
filling
females
magnet
phenomenal
sweat
raped
strategic
logical
multiply
journalists
fatal
democrat
bulbs
frequently
juven
##burg
aliens
biomass
clubs
manipulate
rubber
mosquitos
catholic
overwhelmed
correspond
zealand
whistle
eliminate
iconic
tolerance
exploit
controversial
chromosome
minority
gandhi
mixt
enhance
aesthetic
prosperity
arthur
scenario
glorious
monitoring
electrodes
unseen
ultrasound
beijing
symphony
angiogenesis
mumbai
goodbye
glimpse
nonviol
37
31
47
bite
bump
cattle
croc
calend
hiding
kin
kat
kur
lamp
longe
qa
##cin
##rist
##lor
##gy
##ym
##tz
##30
##eries
##atoes
##rey
##alf
##orters
##itative
##utan
stead
heal
##thy
##thetics
seb
sends
canvas
melt
##ila
dean
deck
depr
mycel
triv
##ifies
seemingly
##ogens
tags
##abeth
agents
##enses
##ibe
##berry
sylv
indians
grant
scaling
##phere
carries
blink
ende
understands
190
cares
behold
##grade
corals
entry
heading
hopeful
infant
cheat
diarr
assets
deepest
landing
territory
digging
freak
optical
statistic
##hea
parkinson
femin
continuous
contribution
integrate
physicians
exhaust
woods
catching
graduated
ignor
philosophers
philosophical
rotate
concentration
installation
voted
vegetable
korean
##forestation
encouraged
administr
##itzer
adolescent
arrested
triangle
abandoned
maximum
wilson
charlie
approximately
ibm
hemisphere
heritage
stewart
ireland
longevity
qaeda
72
96
dose
hills
matt
naz
rome
tiger
##oen
##mill
##inity
##reme
##inger
##ano
##ali
##eding
revel
##eting
##see
##sell
hay
stad
staring
abed
asian
##outs
chase
chew
##ilized
confer
spo
whoever
intric
sake
unst
##ansas
managers
brad
foie
drif
committ
commons
incl
blah
findings
##cont
slower
trapped
mines
modest
hug
recre
computational
projection
behalf
cambod
distinction
reasoning
##pring
geck
beautifully
pays
craig
depos
copies
copied
penal
sexy
purple
conceptual
dancers
wishes
periods
ethic
gasoline
crossed
safely
sequences
introduction
panc
accountability
clinics
blindness
websites
sweep
concerns
prisoner
determines
sectors
broader
algae
randomly
hydr
smells
vaccines
teenager
cooperative
hostile
platforms
ventil
simplest
saudi
shifts
announce
acquired
berlin
octop
criminals
reproduce
overwhelming
labeled
alphabet
irrational
rituals
olympics
deployed
dictators
commodity
abundance
hormone
observations
chronic
hierarchy
shepherd
aristotle
kosov
livestock
cocaine
sylvia
42
86
awe
cables
dian
eighth
gad
gains
ku
lem
lanes
mant
mild
norden
oven
rip
sco
sizes
useless
##lers
##iots
##itable
##itivity
beam
revers
##imb
heating
cany
##raph
##ules
logo
alan
proved
spat
##usal
##actic
unw
unin
workforce
##izabeth
mankind
aged
cloth
##achel
##ormal
##anged
acids
descend
##quarters
indus
grim
##icked
scra
##elled
##aken
technic
guitar
simon
belt
##weight
apps
compute
elizabeth
cared
formation
machinery
##boards
programmers
yeast
greenland
frontal
harry
investments
collectively
parenting
barriers
sensing
18th
consuming
practicing
copenh
brave
stays
professors
filmmaker
cooling
measurements
horror
pulls
touching
worthy
ethan
epis
functioning
magician
temperatures
continuously
significance
reflected
associate
130
pigeon
demonstrated
verbal
expanded
attracted
revealed
mask
opinions
satellites
privileged
republicans
chimpanzee
ingredient
autonomy
cathed
census
accomplished
olympic
tedtalks
beetle
textbooks
stereoty
lifespan
intimacy
brooklyn
mcdonald
hawaii
marathon
hybrid
parachute
girlfriend
diarrhea
copenhagen
38
46
98
aims
eats
fi
germ
jh
jur
jord
mentally
nons
por
pairs
ross
rape
sour
yog
##cet
##aque
##born
##nat
##vable
##rels
tod
##ena
##enance
##omic
stol
##idi
##igma
##urable
anesthesia
##theless
##olitan
shorter
chains
chasing
peel
##umented
##essions
alumin
trips
enab
whoa
intimate
##osexual
fever
preach
interd
buzz
broc
##asses
contag
gram
criter
crows
blur
flesh
shoulders
##bean
keys
nevertheless
patri
ministry
meditation
2020
farther
presum
couch
swallow
youngest
passes
secular
nightm
paste
terrific
terrified
universes
fundra
convicted
specialized
destination
recognizing
travels
straw
combat
risky
expressed
screens
truths
1999
1998
texts
bacterium
lifel
interventions
reporting
hometown
sequencing
separation
detector
annivers
bench
enormously
banking
celebrity
integration
beaten
orders
diagnosis
frequencies
injured
profitable
queens
melting
politician
grains
##ulses
accelerating
athlet
prototypes
lifted
caves
authors
acquire
desktop
concentrate
alexander
duty
frogs
sarah
storyteller
recycled
desperately
symmetrical
chromosomes
utterly
##keepers
acknowledge
tropical
tattoo
neanderthals
supreme
leopard
incorpor
horizontal
canadian
congestion
lewis
sebast
trivial
nonsense
stolen
bert
cad
dare
dread
divers
fired
fda
gi
hmm
kit
lu
lak
lists
mes
mater
sie
sands
vene
wore
yards
##uation
##lon
##bag
##gal
##hah
##inent
##restr
##enous
apolog
apples
##anas
##oral
reh
soap
##irl
##ithm
seals
segment
shops
chile
chunk
friction
debr
pecul
alas
alle
alike
usa
sput
compound
league
ambit
donors
twin
coca
happily
phoen
acute
boost
##uctive
##phal
cola
helpless
planned
famine
metrop
biof
economically
format
corners
protocol
marks
minded
demos
##ierra
sidewalk
eyed
momentum
milo
milky
cheating
politically
networking
retail
noneth
argues
symp
superst
trading
copper
shoots
honored
neglect
1994
riding
texture
johnny
fantasy
disappears
correlation
judgments
odor
documented
celebrated
unfortunate
folds
thrilled
tuned
mutation
bullet
gardens
blew
streams
accuracy
priority
embracing
roofs
chapters
accelerate
stimulation
shifted
belongs
kicked
witnessed
ceremony
officials
buddha
julian
execut
coordination
observed
premise
mentor
constitution
strikes
authenticity
jonathan
pouring
cluster
fulfill
refugee
wiped
constraints
hallucinations
enterprise
jacqu
palestinian
tibet
bosnia
mycelium
peculiar
nonetheless
bh
cum
han
hir
mun
ny
oy
wins
##eu
##aired
##mes
##mod
##bc
##bing
##glo
##fold
thor
tox
toll
apoll
##isan
##oto
##oton
beef
belly
##uts
reass
##ete
##etal
haz
sticking
##ched
dod
##thal
seaw
priest
pricing
sher
shining
##elines
suff
composition
unint
workplace
perm
##aby
evapor
manager
prepar
clips
bugs
disasters
overnight
##irect
contained
scal
incon
carib
crude
counted
earning
relat
powerpoint
monster
plank
slice
metals
elabor
warr
warmer
headquarters
charter
scientifically
##ographical
stopping
default
lego
nights
increment
collision
empath
operates
chemotherapy
fails
float
philip
philipp
strand
pathways
unfair
pollut
sooner
linking
trusted
achieving
portug
epip
cleaning
attacked
squares
apartments
panic
improvements
cataly
mirrors
christians
assumed
addressing
receiving
talented
liberty
inventions
lawn
##faction
tunis
dependence
verb
preventing
mixing
climbed
emotionally
jews
interpre
appreciation
fifty
replacement
obsession
##iatric
documentary
stunt
poems
punishment
lectures
dishes
toilets
astronomy
astronomers
negotiate
embarrassed
prostit
accomplish
estimated
desperate
candidates
symmetries
households
abundant
adolescence
millennium
wrapped
veloc
receptor
distinguish
revolutions
lonely
reclaim
lebanon
indigenous
octopus
aluminum
anniversary
ambitious
phoenix
aur
bid
cul
dum
fog
groc
hated
jun
jup
lith
mature
nud
pav
piss
rust
uk
##kin
##gas
##hes
##hma
##inational
anderson
##anny
offe
belo
solo
##storm
##stairs
##igan
anth
##imeters
seattle
primate
##tering
##raine
meets
exotic
exquis
pean
##iful
spiders
##unks
enrich
upward
upright
plates
timing
##apore
manus
prey
resur
disney
needles
deserves
boards
carp
surre
simul
systematic
instruction
relatives
##teen
consp
consens
imagining
##ergy
1950
traces
cream
explored
reporter
visions
viscer
submers
singapore
charged
switzer
tyr
##asha
##iolet
forecast
equity
equals
advis
##rium
##ucks
presenting
variable
messy
illusions
breakdown
copying
squared
sexually
multinational
producers
visualize
lays
rockets
nucleus
defining
primates
activists
delivering
authoritarian
feminist
sanitation
counsel
##iptions
suspe
infectious
acceptance
towns
1980
kilogram
banjo
innovate
talents
sadly
folded
microscopic
democrats
##kyo
symbolic
mexican
bandw
forgive
conductor
responded
irony
priorit
priorities
corporation
maintenance
indicate
convincing
tagged
pipeline
atlanta
##coli
frustration
converted
occupy
isolation
resilient
jerusal
cybercrim
sahara
assistance
frightened
cockt
imperative
prescription
##conduct
##standing
treasure
buddhist
acoustic
accompanied
corresponds
propaganda
devoted
catastrophic
rehabil
grabbed
antenna
committee
broccoli
sebastian
##restrial
sputnik
seawater
preparation
jupiter
switzerland
jerusalem
97
bib
cope
codes
cups
dj
dave
divid
drought
kim
mum
nether
oz
pestic
pulse
rou
rag
rains
sierra
tink
tangible
von
wk
wre
##culation
##rol
##matic
##log
##bird
##gia
##hors
##wan
##zler
thyl
##inas
##atics
tokyo
apes
##alay
##itis
##imag
goat
##olera
shatter
comments
cholera
##rah
##racies
allies
deforestation
##arts
beck
knees
alert
actively
compounds
lexic
##ouses
expose
precip
wells
arc
ark
arbit
clues
dispar
discrim
bruce
##anging
##angle
humility
counts
countless
blast
basking
himalay
transact
founding
gravit
reader
cellular
generates
singer
regulations
connectome
marg
passions
addict
addiction
tedglo
researching
wax
configur
##brush
answering
30s
programmed
frontier
viewing
babbage
pleased
norms
185
chemist
blueprint
125
psycho
practically
brands
destruct
entert
pathway
exceptions
describing
ethics
progression
beds
divine
budgets
favel
graphs
##umbling
activated
immigr
translator
asthma
heavily
loses
calculated
calculating
susan
accepting
contributing
hurric
torn
motivate
mutations
2012
coastal
prospect
tribal
ghost
diagnostic
mammal
chickens
sculptures
injuries
volunt
substit
kilometer
hambur
egyptian
infinity
investigation
replacing
prayer
praying
tanks
diplomat
revenues
memorial
gestures
louis
improvis
jefferson
persuade
bombsight
1930s
naive
hormones
bribe
rosling
emphasize
teszler
casual
buttons
statistical
whisper
amateur
weekend
anatomy
manufacturers
interfaces
prevalence
festival
inhabit
columbia
staircase
namib
dvd
minerals
mixture
crocod
stadium
gecko
penalty
kosovo
ethanol
criteria
debris
grocery
consensus
netherlands
thylac
tedglobal
bore
cd
dwar
eternal
ig
jumps
lighter
mating
mcc
nair
pou
pent
porn
sang
tb
tide
tues
wats
##oy
##pace
##ev
##mate
##bot
##ni
##normal
##violet
##gon
##gency
##hot
##fly
##function
##zi
thail
##iscover
whit
##lla
soc
soy
quarters
##urd
##cha
##keley
anecd
##ira
goli
heck
abilities
shaking
worm
thereby
fruits
##ulative
##aunt
alice
alright
altered
outrage
thinkers
##apagos
unre
unve
##arded
maneu
##agan
preced
disk
monday
##ologic
brick
##rock
shower
incub
stranger
guards
deciding
longest
involving
##tech
patch
slip
slope
famously
20s
2030
projected
visiting
submit
marker
respir
regrets
easiest
tedsters
infra
posters
filmed
calculation
equator
absurd
stealing
viewer
argued
sensitivity
187
supportive
sudan
richest
surviving
considering
galapagos
colorful
promises
wished
spiral
tomato
captain
activate
threatening
catalog
angles
participating
representative
assuming
celebration
cardboard
employment
blogging
atmosp
demonstrates
journalism
integrity
terrorist
astronaut
laughed
shelves
alternatives
ambition
towers
bonn
folk
therapies
empowering
reviews
quietly
loads
dispers
entrepreneurship
pipes
paralysis
diamonds
berkeley
montana
asteroids
neutr
weighs
implemented
partnerships
columns
oriented
psychiatric
ranging
metabolism
purchase
ultraviolet
cousin
cousins
vitamin
precision
fungi
reinventing
temporal
dragonflies
##abulary
microphone
electromagnetic
juvenile
cambodia
spatial
elaborate
tuesday
watson
thailand
goliath
43
44
900
arous
cer
doses
hars
kelly
lately
pumps
rud
rank
tips
vin
zimb
##eem
##rian
##mia
##vis
##gg
##wling
##zes
##zuel
##inished
##ndry
##oman
##ason
##leep
##owers
reck
hacking
##state
stamp
##idth
##urf
##thood
seam
asleep
sha
chord
mead
##ili
orth
##arten
loyal
##istine
plut
##iva
sucks
##mentation
perse
expense
evident
sheer
impr
mull
##ignant
##acent
acres
##roid
##roots
adds
herd
drunk
generic
carne
humankind
simulate
##erto
obt
##uba
lasting
helmet
transit
##bees
consent
monso
kidna
kidding
slog
moma
biologically
exploded
generosity
submar
demograph
respo
entr
headline
wonderfully
parag
proph
bloody
##bral
treaty
publicly
asset
archive
ordered
crab
cracks
rises
alongside
refuse
operated
escal
potatoes
barb
democracies
##apped
circulation
touches
facil
critically
babylon
portable
puff
attacking
planted
virtue
##umbled
screening
collaborate
checking
checked
checklist
misery
misunder
hoped
presidential
climbers
discussing
tricky
heroic
deny
tales
logging
uniquely
sections
hairs
matched
2015
transported
flights
##thesis
emails
arabia
ancestor
analyzing
candy
adaptation
masters
##comput
targeted
regularly
indicates
reviewed
exerc
##heads
assembled
hawking
diamond
narc
disciplines
augmented
semi
reproduction
satisfaction
confronted
pedest
storms
censors
exponentially
mysteries
entrepreneurial
procedures
vocabulary
blessed
hackers
promoting
champions
fishermen
rejected
anticipate
refugees
millennia
beetles
bureaucr
disturbing
enthusiasm
enlighten
album
dismiss
guidance
wolfram
pearl
outbreak
ebay
canyon
cathedral
venezuel
apollo
bandwidth
450
74
bj
cage
dal
gord
jill
lane
mast
merg
mash
mama
ngo
nodes
pose
pix
pets
ron
rachel
siber
tread
viable
yard
##pro
##press
##cale
##mn
##lical
##bes
##nett
##gage
##fare
##inable
##inator
inqu
##arial
##omed
iter
##eted
stam
##opo
pra
cann
shed
shield
shipped
worship
##ilib
exagger
deci
orang
loans
mah
prox
ushah
envel
intentions
moreover
suits
##ghetti
nov
managing
arise
disad
disconnect
firms
##rypt
##conds
##isha
genomics
incom
greatly
guilt
decomp
baseline
##ighters
courts
##beat
slaugh
natasha
serves
appoint
learns
lightning
##ifications
suppress
entities
##hips
regul
airline
environmentally
geography
assure
freezing
equilib
cracked
micr
expectation
##ernic
argent
superconduct
templ
180
supports
draws
slowing
predicting
circular
paths
promising
dancer
beneficial
variables
sticky
vacation
sequenced
cookie
perspectives
returns
collaborator
rolled
sadness
interviewer
applies
orgasm
losses
displays
magazines
novelty
nanom
attempts
ambass
candle
appeal
gallon
adaptive
divergence
grassroots
crashes
voters
reforms
frustrating
complain
powder
cerebral
conservatives
louder
anxious
accumulate
obstacle
palestine
clusters
champion
crafts
tesla
skeptical
nurture
screaming
disappointed
spaghetti
offspring
veterans
chimps
parasite
legitimate
squeeze
glacier
cigarette
snake
nichol
tasmanian
pitts
artifacts
calendar
endeavor
enabling
alaska
caribbean
relativity
velocity
beloved
cybercriminals
destructive
hurricane
dwarf
responding
gordon
envelope
equilibrium
34
52
64
aust
aven
bent
bog
bunk
cn
cav
drain
dates
eu
ft
ga
gor
gel
hud
hatch
kings
nike
nasty
oak
ps
rac
sms
til
viv
ware
##oven
##coming
##mun
##ded
##bone
##jan
##atible
##atories
##ength
##ester
##anch
##alore
##aser
reed
##ctar
stare
##iments
neil
nectar
chore
chess
deple
trium
bypass
##ivals
compens
composed
noisy
agn
agile
prest
prefront
arose
coher
resident
discl
overlo
impulse
rover
kinderg
##rovir
adul
advers
syria
underw
boots
##velength
humble
surpl
afterward
basement
instances
##avors
relie
joel
insert
keith
moder
serge
appar
extr
finishing
attraction
warren
buses
secondary
preserved
##awa
marked
markers
singers
funeral
greg
grey
specim
processor
processed
curator
culturally
midst
waited
wavelength
cheet
confined
restor
condom
caltech
auditor
archae
radar
radius
refined
potato
barry
barrels
superher
supercomput
temp
bluefin
illiter
personalities
photographers
pressures
dreamed
specialists
violin
statue
telecom
sells
developmental
traditionally
ballet
balanced
fairness
emerges
11th
1997
1995
subjective
snakes
characteristic
strangely
representing
museums
respected
depressing
liberals
reflects
explores
bangalore
commerce
victory
desertification
manufacture
mammogram
injust
analyzed
libraries
impressed
fossils
towel
accurately
defeat
exhibit
dispos
explanations
myths
pilots
##holders
declared
manipulation
##breaking
pregnancy
ruins
elders
purely
comparable
minimal
observer
observing
beside
inherently
thermal
controversy
vocal
elevator
commodities
disgusting
##vasive
rainforests
composer
flourish
trauma
repeatedly
acknowled
incidentally
##ocratic
spontaneous
##chemical
ingenuity
forbid
perceptions
zipcar
intrinsic
saturday
intervene
deficit
membrane
substantial
jungle
bmw
neocortex
steady
nightmare
fundraising
pollutants
arbitr
namibia
maneuver
infrared
monsoon
ushahidi
prefrontal
kindergarten
aunt
cues
dens
dang
dome
dyl
eco
fame
gag
gro
iq
lyn
lakes
lama
luther
mm
nail
owe
pess
pap
qatar
rs
roles
saint
vect
wiring
yves
##oos
##phing
##eing
##rine
##low
##ko
##bian
##yer
##take
##fire
##zzy
##eros
##erving
##erness
##iner
##inburgh
inert
##alities
##arium
stairs
##vere
##opes
anas
wasted
##imony
##amas
arena
hect
abu
prag
prisons
comed
##raz
alloc
notions
frames
##estone
conj
alar
tect
outl
##cium
intend
##emia
##ements
unac
tai
worldview
##00s
clapping
newly
coined
impaired
brun
pond
spends
syring
underm
indirect
bonds
drama
scand
scroll
earned
basin
endless
keen
problematic
editors
edinburgh
placebo
developments
##issance
graham
biases
reads
##ocracy
skys
repet
rediscover
charming
valve
camels
##onto
tedmed
morph
confirm
trek
##version
crap
stewards
avian
focuses
hugely
delivers
refused
circul
norman
freud
##rophe
raises
esp
escap
symbi
laundry
existential
cyn
improb
floors
recognizes
princet
responsibilities
revolutionary
salary
erotic
##nedy
releases
starvation
admin
planting
##ogenic
laboratories
fixing
collaborators
heavens
accountable
daddy
140
discussions
denmark
thrust
toronto
matches
mutil
mutual
scanned
kennedy
historian
moses
quantities
michigan
diagnose
mammography
seasons
surveys
hypert
recovered
cooperate
galleries
mastery
merch
pursuing
darwinian
appreciated
maintaining
altru
loaded
illnesses
investigate
cosmos
matth
pipe
advertis
falcon
cafe
biomim
encountered
heights
chaotic
thirty
disappearing
affairs
coordinate
courageous
washed
derived
##vania
delicate
rigid
rhythms
ashamed
cockro
delighted
hatred
eradicate
coding
catastrophe
guardian
advocate
nurturing
regenerate
migration
suspicious
fetus
disruptive
juggling
aggregate
suburban
contradiction
neuroscientist
summarize
outdoor
mozart
jewelry
erectus
##roverts
browser
crushed
lemon
episode
metropolitan
suspended
rehabilitation
voluntary
nairobi
soccer
pittsburgh
auditorium
injustice
dylan
pessim
princeton
ay
cp
caf
dune
fred
gosh
hence
hij
ivan
icons
kay
kel
khan
lump
ms
oecd
pity
piles
rum
uv
##city
##aissance
##ran
##rog
##rition
##uated
##lvania
##bucks
##vae
##tan
##zer
thro
##inates
##atus
##ingo
inmates
##alia
##arth
##lli
beast
beeth
stigma
forty
dodo
##erend
abroad
abnormal
prose
pristine
##olar
shipping
##ods
##ationally
chalk
exceed
defect
##oker
mapped
spite
sperm
spheres
enters
##inea
##emi
unimag
theirs
noble
amino
perf
fee
agrees
agnes
arter
happiest
bund
disabilities
##ologies
poets
backs
contents
syd
daylight
hump
ideology
ideological
realities
##play
carr
writes
crank
guinea
invitation
##iously
##aven
playground
joining
##bee
fuzzy
conscience
examine
schooling
slum
centimeter
modified
edit
edited
recur
cellphone
skilled
subsequ
handful
walker
regulation
regimes
regional
monthly
##balance
sword
glory
##neum
brew
auto
##prod
checks
labels
testoster
calcium
mustache
steep
viewed
##ocks
successes
digits
literal
##sylvania
operator
potent
argu
superior
centered
occas
dreaming
doug
##ophys
eros
prevail
terminal
speeds
1991
boyf
awake
starbucks
principal
ladder
varieties
homosexual
fluores
rainfall
marsh
accounting
detected
1984
deng
cardiac
jumping
conditioning
appliances
renaissance
axes
utility
roman
triple
explorers
ambul
masterpie
bonus
votes
egyptians
empowerment
tickets
informal
jackson
angels
mythology
suitcase
declining
circuitry
flexibility
republican
symptom
negotiating
jersey
greeks
depths
injection
fragments
scarce
knocked
aquatic
fisheries
metabolic
gigantic
tightly
duration
reciproc
ninth
automobiles
clarity
atheists
pioneer
crystall
legisl
volcano
traumatic
gratitude
update
certified
quadr
statistically
marvelous
physiology
contradict
voyage
bioluminescence
cochle
scotland
numerous
divorce
bamboo
##nutrition
settled
survivors
embodied
pennsylvania
nonviolent
unstable
jordan
inconven
warrior
portugal
visceral
cocktail
carnegie
entrance
enlightenment
venezuela
dalai
beethoven
testosterone
53
bah
cort
dall
dorm
dwell
eag
fg
fans
horn
jokes
kap
kite
lol
lined
lagos
mola
nie
node
ov
oops
piv
pneum
rog
racing
sb
sj
sib
sri
tad
uter
wi
wage
wrest
##ois
##pi
##cs
##aire
##rated
##lied
##dles
##bir
##vascular
##sis
##tles
##fur
##flu
thunder
theft
##inative
##inators
andy
##eng
##alie
##isc
whip
bending
##etary
##etches
sovere
stap
stagger
##opa
wasting
lips
hears
##adel
##oding
chin
##gel
##uled
excer
##umen
likewise
lobe
##iflu
justify
spine
spills
spike
envision
enforce
intest
sue
unrel
unlock
leone
leak
##ousy
##reatic
donation
anytime
resort
resolved
brig
roy
##ensed
##ibati
##ounding
##acities
##roit
underp
booth
goodness
gramm
emily
##rained
scare
##phia
##integr
strat
crust
blows
##redict
decides
obso
transm
transmitted
patience
slam
trait
server
grape
biased
elbow
larvae
##aza
skip
sketches
wonders
projections
warfare
electro
countryside
hobby
singular
reduces
addicted
educating
morally
autistic
reasonably
##crib
detroit
##apses
continually
statements
filters
freeze
equipped
norway
thirdly
collar
collider
eighty
potter
approval
typing
commonly
limbs
copernic
poorer
irres
iceberg
slowed
philadel
hotter
malnutrition
northwest
suggestions
sustained
salmon
nuclei
fairy
1996
synesthesia
epile
admir
admitted
snaps
parked
##lights
160
immort
burns
influences
calculator
1989
germs
distribute
bananas
innovators
rolls
halls
optimal
optimize
reflective
inventing
inventors
iranians
##backs
matching
blocked
independently
verge
applause
tails
paradise
surroundings
1970
michel
officers
fashioned
honesty
##ibera
util
doubling
linux
mouths
tastes
nanotechnology
russians
attempted
explorer
tourist
accommod
notebook
harmful
australian
ironically
melody
demanding
stressed
hammer
accelerated
prototyping
##igrade
documenting
sexuality
referred
stunts
colonial
weakness
acquis
unpredict
implanted
astronomical
cartoonist
commandments
ipad
consistently
julia
antibodies
vibrating
pediatric
irrigation
tortured
hooked
improvise
instincts
disagre
oblig
bucket
attributes
atheist
volcanic
satisfying
skeptic
degraded
arrows
decentral
tamiflu
amateurs
indoor
redefine
weekends
temptation
summary
bounce
dysfunction
nerd
suburbs
basketball
gifts
prolifer
brutal
fluctu
kiribati
coincidence
sterile
intricate
pancreatic
diana
##natural
interdepend
rehears
bhutan
unintended
epiphan
pavil
margaret
harsh
surplus
sydney
philadelphia
58
78
94
ao
cue
daw
dug
ease
estr
fier
fission
goss
ja
jason
kitt
kansas
kibera
laz
lapse
mau
rug
rna
rift
riots
tou
vig
wed
wives
##eg
##core
##cup
##mor
##mass
##uan
##lan
##bell
##inter
##onal
apoc
##edes
##omot
##asant
##ller
##owing
isa
reconnect
reagan
haun
stated
lip
prizes
##adus
shack
nepal
worries
atraz
##illes
##ested
extending
congr
alter
encel
plum
##ogether
sailing
compact
##ourse
unified
##izational
##abwe
donations
##ached
partial
disse
disconnected
moist
backed
##assy
phthal
desires
boil
grind
grief
humming
ideo
drift
drilling
carn
carrot
carcin
##iverse
offsh
##lection
crater
blad
##ucose
flush
remem
owns
slave
bitter
developer
developers
grabs
##ocative
skate
careg
reporters
movember
bookst
submitted
entit
entity
swing
societal
glucose
midnight
globalized
standpoint
##strong
deter
propulsion
listed
painter
remembering
geese
publication
##lessness
mustard
retired
retrof
stepping
individually
avatar
dealt
delta
empir
reflex
operational
186
188
squir
specialist
armstrong
##liers
consideration
hotels
telephones
cameron
sustaining
worthwhile
facult
combining
hunters
competitors
policing
esteem
balcon
balloons
relev
releasing
synapses
textile
reactors
hitler
cleaner
furthermore
variability
skype
##aurus
cooked
translating
banker
sanitary
wilderness
##annah
benign
judges
discussed
banned
insecure
launching
darpa
darfur
throws
controller
drinks
jean
jeans
hydroc
tremendously
metaphors
campaigns
laughter
opposition
utop
romance
rhet
photosyn
petro
spaceship
revealing
strengths
juan
gallons
murray
replicating
epidemi
zoo
stimulate
infinitely
attachment
altogether
tagging
peaks
brazilian
reinfor
negotiation
shallow
appropriately
qualified
pinpoint
tapest
rooted
swedish
1945
cuba
charts
holiday
lenses
rescued
harvesting
footprints
assistant
constitu
orientation
venus
abandon
crystal
marginal
dumped
fertilizer
jamie
migraine
spawn
dunes
involvement
spontaneously
evaluate
glaciers
assessment
ambiguity
cabinet
orphanage
sulfur
irrele
inexp
doodling
strictly
unemployment
##foot
undergraduate
scheme
annoying
parameters
ignorance
lakota
thorough
toxins
lithium
gravitational
configuration
entertaining
respiratory
zimbabwe
slogan
demographics
censorship
avenue
cnn
triumph
taiwan
excerpt
obsolete
atrazine
enceladus
hydrocar
57
84
aort
bass
bak
bumble
cel
cine
cia
dp
erupt
faint
gab
jury
kan
kal
kep
lur
lure
mp
nost
ow
pul
pist
pine
rides
serend
tul
wides
watt
yale
##pread
##acious
##ders
##dog
##dled
##bine
##bia
##bons
##n1
##vol
##hib
##hops
##atical
##atts
##onoun
##anor
##itas
##arin
beats
rear
##etical
forum
forcing
##verb
goats
heel
withd
coma
chuck
allen
alliance
noticing
##gebra
##esty
exit
pepper
##aug
##istically
algebra
trunk
usage
spear
##heric
intangible
##eland
saul
timber
unch
unite
##izona
##acks
noises
amph
amster
pervasive
##abad
expend
evan
arizona
clash
interconnect
rightly
reserv
dissem
needing
impat
##acre
acre
idiot
##plete
##rocess
boot
boiling
##eps
grip
##coal
scope
scatter
scrib
scaled
##intu
##pling
smiles
##formed
wrink
cram
blade
flop
inviting
invasive
lasts
reluct
brainstorm
creators
consol
consists
trap
trail
trailer
numb
mineral
highways
mediev
communal
develops
##weeney
202
questioning
biotechnology
skies
explode
possess
corrid
charcoal
regulate
curt
swam
##ographing
pops
modeling
proport
##boy
bloom
certainty
locomot
poses
menu
sought
15th
lawrence
steak
directed
directors
sensible
europa
beginnings
limitation
embassy
weekly
pressing
cooler
medications
requests
experimenting
laying
affection
currents
posture
110
1993
trusting
slept
epic
tracked
homin
mathematically
introducing
bankers
detectors
acceptable
addressed
kilos
odys
liberia
employed
tennis
titles
fatty
selective
willingness
1968
bulk
bulg
efficiently
displaced
rotating
academics
motorcy
cruise
merit
##copy
##ulsive
beaches
investigating
conclusions
punish
recycle
fiscal
navy
sighted
biomaterial
unsustain
barefoot
holoc
negotiations
jerry
commentary
execution
fertility
inherent
macro
mentors
##hran
oliver
synthesize
fulfilling
nicole
eradication
puppet
triangles
williams
resonance
stereo
aerial
satisfied
scottish
fractal
aspiration
aspirations
indoors
manufacturer
routinely
ingenious
georgia
correlated
shouting
ott
linguistic
sixt
enzyme
comprehensive
intersection
registered
kyoto
legendary
katr
adolescents
contagious
apologize
executive
plankton
exquisite
pesticides
poured
vinci
obtained
siberia
##proof
##opoly
incomplete
ambassador
nicholas
apparatus
tempest
arbitrary
erosion
boyfriend
dallas
staggering
offshore
kepler
serendip
widespread
amsterdam
medieval
40s
ais
auction
bil
balk
cs
dd
dude
daunt
fm
fighters
gle
gil
gaining
gaze
hers
hoc
heter
ion
ike
jenn
lh
lind
lank
laur
mitch
nik
oreg
pup
rus
rav
ramp
sank
tuck
vents
wages
ya
##oir
##pers
##cam
##curity
##afe
##mart
##mph
##master
##lar
##ikes
##dad
##word
##fu
##ju
##jud
##12
thesis
##ndane
##enna
##anium
inver
##otr
##leans
bever
rept
rebel
##etts
sock
##idity
##cending
##oping
doo
doha
goose
hex
abd
##olith
canal
##ulously
##oren
orleans
peps
##uman
##oko
tehran
trump
spong
spouse
spades
##usetts
imbalance
saves
hadron
##ema
##eman
compr
compressed
uncover
unequ
##acked
expands
manages
##idepress
arithm
twent
twins
##achusetts
buys
moons
mundane
poach
##ptic
rooft
acumen
##loc
adequ
gran
humil
eman
downstairs
realizes
incar
carved
stripped
##ileo
flap
colom
lasted
relates
##tends
thoughtful
insult
transf
imaginary
imaginative
slices
poles
poland
polite
centr
centigrade
tract
ministers
modes
seroton
appet
extensive
metast
bikes
cellul
reperto
suburb
hollow
mindful
curs
swap
##cuses
photographing
educators
sounded
tops
oppon
##mann
inflation
##iovascular
robb
confir
costa
defines
testimony
posed
geo
foreground
auditory
payment
governmental
landf
stef
steer
suns
oiled
risd
massively
massachusetts
antidepress
refers
measurable
presentations
##cca
neurological
##quez
barack
shortcut
yorker
sums
189
performer
practiced
penis
flock
grounded
versa
poorly
winners
billboard
identities
multiverse
descriptions
producer
nicely
fights
mald
northeast
ceos
cease
galileo
ecst
prevents
arrog
dining
balancing
oxide
smartphone
trustwor
sync
progressive
##rospect
skyd
##cussion
translates
magnets
appearing
sanct
palace
meantime
centralized
1986
scripts
shaping
troubled
celebrating
cardiovascular
turbul
industrialized
employee
automatic
interviewing
inefficient
radioactive
randomness
deserts
quantitative
1973
switches
breasts
##obic
visitors
frequent
appealing
counterp
merc
venter
settings
illustration
implication
replied
reconcil
jacket
angel
wallet
complaining
implants
shadows
container
vague
criticism
mimics
adventures
cubic
lester
severely
absorbed
nursing
gyrus
whistling
excellence
premature
eliminating
shells
stretched
airports
rabbits
titanic
dictator
therm
olive
devastated
360
dictionaries
aquarium
hacker
migrate
scholar
recipes
firmly
tweet
manifestation
margins
breakthroughs
regenerative
intimid
certific
tattoos
enlightened
##frame
botan
croch
paleont
gifted
intrinsically
shirts
cassini
schedule
strains
##charge
enzymes
flickr
cultivate
turkish
explicitly
underestimate
penetrate
exhausted
conferences
sweeping
presumably
lifelong
sympathy
manuscript
conspir
submersible
wreck
himalayas
hamburger
improvisation
atmospheric
agnostic
pragmatic
ambulance
cochlear
unpredictable
fluctuations
epiphany
congrat
relevance
irrelevant
unsustainable
katrina
oregon
arithmetic
77
82
awards
bp
bac
baker
dash
eames
eager
fount
gour
hed
karen
lag
lisa
mul
merm
ness
om
pam
pulses
rg
rage
races
rsw
sars
sony
sessions
tilt
vapor
wiz
##eid
##ending
##cke
##cils
##drop
##kers
##gher
##hou
##hill
##tic
##zo
##reen
##rection
##onac
tob
##enza
inade
##orth
##isher
##otent
##icry
onc
onset
##sex
haul
sob
stall
starch
##idental
##urt
anes
anch
dove
##iry
##amation
livel
liby
heated
seiz
prone
pronoun
##olab
shuff
##odox
##raw
somalia
decept
knight
##cia
##cile
imf
sapi
timeline
##activity
unity
levers
amanda
##aba
donated
evolves
##udge
cloned
claws
interference
overd
overse
impose
backp
fond
##berty
##bercul
undert
underway
##ffiti
indul
emission
##ials
##othermal
ideals
drone
commands
##places
incons
incomes
simulated
flown
invade
##fts
personnel
thankfully
patr
slipp
slaves
polish
terra
modular
medi
edible
edward
apprent
communist
10th
moms
graffiti
elites
generator
subm
##ugs
animated
animations
##airo
couples
governor
curved
swear
popped
profiles
easter
distorted
waking
confusing
geek
forehead
programmer
issued
crawl
steering
literary
missions
superpower
grandma
12th
surprises
performs
performances
southwest
filmmakers
multim
seaf
measurement
urgent
responsive
pathogens
prompt
danish
availability
mounted
periodic
leds
##banisha
puberty
admire
snap
spirits
returning
panbanisha
packaging
supposedly
contexts
mirac
fraud
continuum
continuity
1985
secretly
liberation
reminder
determination
tennes
hurts
##bolic
exhilar
fitness
kenyan
mosque
astrolab
struggled
photoshop
conducting
novels
ancestry
nanos
attempting
analytical
ironic
grandmothers
installations
remotely
indication
simplistic
athlete
crowded
illustrates
contracts
stockp
belonging
declined
gangs
categor
taller
encounters
complained
manipulated
rupe
elder
inputs
seminal
fibonac
adjacent
deceased
inherit
transferred
diagrams
bronze
instinctively
imperial
oscar
blessing
flooding
synthesis
sacrific
boson
databases
eradicated
puppy
anticipated
ninety
resonate
attribute
capsule
anthropologist
transcendence
publisher
aerody
aesthetics
commissioned
settlement
tutor
##writer
hindu
neanderthal
prevalent
subsidies
recruit
legitim
protocells
orbiting
arrangement
scholarship
distracted
stimulus
refrigerator
bioluminescent
kamen
drowning
tubercul
##ranean
transistor
transistors
inclusive
todd
bertie
incremental
carpent
kilograms
dividing
boreal
pentagon
astronauts
meadow
treadmill
argentina
hudson
##munic
supercomputer
dangers
unaccept
biomimicry
unimaginable
pivot
pneumonia
acquisition
decentralized
pavilion
fierce
inexpensive
jennifer
serotonin
repertoire
maldives
inadequ
tennessee
fibonacci
tuberculosis
68
73
83
ai
bc
bion
bart
bands
bumps
ct
denom
dazz
fau
fbi
gn
gill
gary
groom
hunch
jama
ka
lamb
mck
moss
nun
nih
pas
rut
rory
rented
serg
sweeney
tig
tire
tipping
vib
wig
wag
##obs
##cas
##aic
##rust
##mond
##lif
##ihood
##dling
##bin
##bands
##names
##gi
##gill
##ww
##wired
##fting
##ji
theat
##atz
##onstruct
##enberg
aparth
##isive
##otes
##otive
##icer
##ican
##lem
##leys
##enth
##sea
sober
##ste
quo
quiz
quark
stain
stumbled
quotes
##kel
anom
lied
##terior
comet
chand
##rack
notation
##anting
##ulates
excuses
dement
deleg
delete
##aud
mahm
outward
sple
enlist
envy
placing
##ogene
##ivation
##elope
sabb
##ostics
compart
unne
lev
levit
taboo
donate
mang
prejud
clut
interrog
twel
##iper
resid
startling
bru
brute
##ibles
contra
containing
emitted
downs
drank
scuba
##aki
strips
strokes
crad
crunch
deconstruct
fled
flipped
flipping
basics
remed
creatively
inspect
transd
fuck
slate
terrestrial
mediter
editing
hull
lightweight
biotech
cello
##ceptible
capacities
preservation
presidents
handy
##aware
hover
energetic
gloves
headaches
walkable
valent
valued
regain
companion
governed
marx
marcus
populated
passport
signing
cheer
costly
blob
secre
exclud
souls
diy
programm
payoff
followers
retrospect
crabs
crawling
##psy
microw
sunny
eleanor
motions
antid
miller
millise
varied
province
protective
optics
performers
limestone
improves
embark
southeast
armor
volat
predicts
experimenter
visuals
visualizing
galvan
galois
similarities
colorado
pathology
combinations
exceptional
conception
ruled
expressing
expressive
danny
postc
posts
bald
##held
slee
visionary
cleaned
graders
searches
captures
introduces
threaten
clinically
representatives
christopher
##chester
1982
assumes
respectful
fueled
turtles
thrive
financially
achievements
contribut
jeal
depended
blocking
citizenship
preventable
tribute
graduates
taxi
plato
rhino
mortgage
forgiveness
cognition
fellows
metaphorical
bleeding
microblog
contacts
fingerprint
counterintu
habitats
therapist
replication
defending
embraced
horrific
fifteen
dragged
flatten
accidentally
senator
cosmology
implicit
marriages
warmth
preferred
punct
unexpl
assigned
assignments
convergence
hyperbolic
occupation
containers
cereal
castle
dominance
pads
executed
vibrant
polymer
memorable
permanently
duke
eliminated
murdered
rabbi
exploitation
flags
prescribe
yields
elevated
intentional
distinctive
promotion
obliv
obligation
conceive
vietnames
constrained
crystals
relaxed
triggered
emphasis
##conscious
wetlands
gamble
nutritional
degradation
##organic
fungus
immensely
corresponding
stabilize
foxo
wounded
exclusive
cigarettes
restricted
echo
##hyd
embryo
battles
threads
metrics
unemployed
ratings
tiniest
friedman
articulate
glowing
fragmented
ivory
underestim
feminine
nazi
gadgets
mantis
stereotypes
athletes
maternal
##bags
cumulative
hirosh
catalyst
peanuts
prioritize
ozone
rouge
tinkering
favelas
crocodile
praise
decipher
racism
arteries
roger
siblings
apocaly
cinema
motorcycle
holocaust
ikea
russell
pepsi
reconciliation
conspiracy
mermaid
livelihood
sapiens
inconsist
seafood
unacceptable
sergio
tigers
apartheid
unnecess
mediterranean
counterintuitive
vietnamese
00
39
au
ald
bou
bod
cern
cement
cairo
dg
ez
gently
ht
hive
hitch
hilar
jab
ko
kr
kate
kath
mister
oun
ply
ripp
rode
ripped
sid
sally
sno
tay
tang
ub
vic
vascular
wool
yr
yah
zamb
##pay
##eur
##cere
##rin
##mies
##uch
##las
##lav
##lene
##iary
##din
##hry
##houses
##wall
##tar
##tion
##fa
##200
##erry
##inos
##oscope
##onies
##onics
##onte
token
tofu
##energy
##esy
aph
inorganic
##alan
##oris
##orse
##orig
##isure
##omen
##asis
weep
##owitz
beau
beard
rex
sook
soils
stole
stagn
##idal
##urance
asym
shah
chad
mell
##ilia
##antages
pel
loops
lobes
maur
alleg
teap
teens
troll
proves
proving
spins
##ppy
plural
plumb
plaque
imitation
suey
vegas
##ourcing
une
unm
unlo
unhe
unaware
##osevel
leisure
tab
##izable
exposing
donn
evange
mann
fees
preoc
clich
intermedi
newborn
partially
displace
needless
overt
muh
brow
poo
poetic
backward
backup
roosevel
##ateral
desal
focal
sciss
##ells
genital
carter
crown
persons
blunt
longing
##ordial
invaded
remot
opaque
helix
womb
insign
meanings
kidneys
sling
mighty
natalie
eden
waterfall
finite
biode
warn
preserving
subconscious
##awed
funn
redund
chariot
swarm
maria
parap
sideways
distress
glut
ted200
infants
confess
blobs
magg
geological
gehry
legos
legally
50th
filming
advantages
##riage
archim
##ucky
retain
pasted
extraction
depict
aviation
hyun
empires
diffusion
providers
essex
missile
technologists
supermass
handsome
typed
cyc
perfection
brakes
penic
europeans
##rett
professions
billy
##ouched
strongest
volumes
dimit
urges
uranium
civilian
experimentation
similarity
unfinished
mainframe
erase
eyebr
bali
smartest
emergent
portland
primal
primordial
efficacy
capturing
16th
crises
cookies
separating
collaborating
packing
pushes
fingert
dads
fragr
benki
receiver
banana
roller
tunas
broadly
enjoyable
integrating
verse
quantity
quantify
1975
campaigning
switching
madness
taxpay
romo
customization
hypoth
commercials
nanot
blend
toughest
grasses
splash
intuitions
crashed
##versely
cognitively
##flow
clicks
proteomics
battlefield
reconcile
preferences
prayers
references
assembling
discount
smiley
janine
surfing
occupied
mandate
minimize
establishment
digitally
bioenergy
holistic
stanley
orchestras
julie
dynamically
explosions
injected
scarcity
rabbit
geometric
rigorous
tolerate
##holm
mega
megaw
intuitively
floods
jonas
passengers
lymph
railroad
wipe
convenience
gando
fooled
flourishing
expeditions
satisfy
persistent
styles
tropics
shoreline
scenarios
enthusiastic
rendering
bothered
sponsor
ipods
jargon
unfolding
khmer
inferior
dentist
ambiguous
shrinking
sulfide
immersed
stirling
creepy
insisted
deliberately
embryonic
uploaded
contaminated
rectangle
feminism
announcement
technicians
incorporate
giants
superstar
oyster
scalable
tunisia
junior
pissed
surrender
simulator
##urfing
loyalty
barbara
pedestrian
inquiry
##roviral
underwear
cheetah
superhero
illiterate
escaped
improbable
altruism
throat
marshall
estrogen
tougher
phthalates
remembers
rhetoric
bakery
daunting
unequal
sobule
overseas
dementia
mahmoud
antidote
preoccup
roosevelt
supermassive
49
76
89
aver
ace
aus
bail
dm
dental
eis
erod
fade
fitting
gast
hes
lava
mint
mism
mik
mba
nm
nod
nash
pies
paus
riot
ryan
tense
ul
##pit
##pot
##pable
##eenth
##cur
##cult
##corn
##cracy
##rh
##making
##uating
##uates
##uels
##uana
##ieth
##dies
##die
##brew
##namic
##sa
##sight
##gian
##gling
##giving
##yll
##hd
##hery
##tically
##fig
##fred
##xon
theor
##atin
##ndor
andre
toaster
##esian
##esters
##alt
##orable
##edron
##iscipl
##itious
##itories
##itives
##arse
##arity
##omin
whirl
##icut
##lements
##owed
bearing
beaver
rearr
sopa
##stick
stink
stiff
##ige
##opsy
##irable
##irts
##amy
##aman
##amous
sealed
abused
cant
shim
churn
##rab
##illions
frost
framed
framing
exxon
dele
orn
##eard
locking
knit
alley
##iffer
procl
prohib
outf
spra
enroll
##usively
upgrade
##ieu
plotted
byprod
##ogy
introverts
##eling
suite
sucked
compress
compli
compatible
unple
unthink
##astically
tahr
##izzy
feas
preference
ard
intergal
coins
disbel
overf
overweight
##ologues
bricks
##iret
##igned
##angiogen
syll
booms
##veling
##kings
grams
herb
downstream
differential
smash
incomp
cran
crum
humane
flames
enduring
monument
monsters
monopoly
exams
slime
centimeters
edu
finland
grapes
biography
##ocation
skins
warri
hood
##geria
demol
coup
responds
headphones
charism
valves
accidental
connecticut
airb
swar
marij
popping
distill
teddy
##cripts
milit
effectiveness
cheated
##noby
paints
##boat
watches
##otto
geographical
foremost
legged
killers
workshops
archie
retrie
pastor
frontiers
landm
windmill
resulted
avo
harlem
delusion
antiret
mills
sensual
superman
protects
euros
optic
cym
practition
richness
penny
essay
groundbreaking
servant
irish
fishes
fishery
encl
encode
multitas
obscure
fearless
firef
diego
malcol
teleg
achilles
ahmed
polls
competent
arriving
##ikh
1992
dominate
portray
burial
reacting
progressively
positively
characterized
capitalist
buddy
homeland
conflicting
virtues
complications
rainbow
spectros
astounding
marshm
freedoms
participatory
influential
loser
calculators
suspected
susceptible
1983
170
respects
thanksgiving
troubling
hallway
turtle
thriving
reflecting
contributions
blogger
automotive
titled
hurry
multiplied
motivates
mutually
inspirational
methodology
franklin
surrounds
brilliance
officially
austria
emailed
##obos
riverside
shelters
brilliantly
petition
speeches
rotten
tourism
rebell
streaming
backgrounds
credible
merge
maslow
bonobos
melted
defeated
avoiding
acceleration
exhibitions
abstraction
stocks
stockholm
springs
pipa
reinv
shuttle
gridlock
antiangiogen
pianist
displayed
pakistani
walter
walmart
hungarian
extracted
1957
vertically
nests
digitize
beekeepers
1949
transplants
ringing
removing
##ueling
bicycles
greece
honeybees
phrases
pedal
whistles
inherited
nutrient
pharmac
sincere
concerts
pools
plugged
hypotheses
stacks
decreased
##untu
tackling
cords
imperfect
prescrib
accumulation
rebuilding
lyric
guaranteed
atheism
maximize
pioneering
attendance
antarctic
borrowing
##condition
bureaucracy
gamma
savage
fertilizers
1918
pharmaceuticals
##azeera
supermarkets
skeletons
gateway
dye
karl
rendered
sponsored
interfere
physiological
pirate
perceptual
georget
voyager
ellen
innate
chernoby
overlap
broadcasting
resemble
tactics
illumination
bonobo
klein
genuinely
scaffolding
guru
periphery
deprivation
revelation
chewing
drifted
recreate
ventilation
technician
dreadful
biofuels
jacqueline
suffers
##abyte
philippe
philippines
prostitution
aurora
biblical
lexicon
disparate
substitute
thylacine
outrageous
incubator
bonnie
dispersed
paragraph
superconductor
austin
warehouse
coherent
residential
adulthood
specimens
vector
comedian
alarming
stewardship
matthew
fluorescent
unrelated
proliferation
dawkins
gossip
isaac
hummingbird
bookstore
faculty
hydrocarbons
reluctant
lhc
mitchell
nanoscale
rupees
inadequate
twelve
microwave
hiroshima
taylor
ubuntu
scissors
maggots
archimedes
hypothetical
byproduct
unpleasant
tahrir
intergalactic
disbelief
warriors
marijuana
malcolm
antiangiogenic
66
aime
bun
bark
batch
bbc
cu
cuc
cds
dual
fah
fetch
gau
jen
jaws
jazeera
ks
kt
kah
lust
lest
latter
lining
lousy
mop
mans
mite
mmm
nad
nag
naught
pave
pork
pots
rider
rows
raging
slo
sush
suther
tm
td
tile
ucl
vas
vicious
wy
##pol
##cow
##cular
##aved
##aism
##rit
##rists
##rines
##math
##uble
##iotic
##bury
##national
##note
##nacle
##vs
##sen
##yles
##hu
##hist
##worm
##waves
##women
##fi
##zs
##zero
##erick
##atma
##ndrous
##oul
##oux
##inge
tora
##eno
##enet
##ancies
inability
##alo
##alin
##alone
##itre
##itra
##asso
whil
##icion
beans
reun
reloc
onion
quart
stakes
##uri
quoted
##oped
##imental
gol
heels
hebrew
whatnot
abdom
aborig
abalone
##ols
shade
nev
neph
##htaking
##illin
fry
##estial
excr
extends
cone
##umara
lover
lovers
knives
alfred
tender
##ective
spit
spores
spikes
enfor
##andan
##ppers
bye
##ogr
yearning
veil
compose
unb
unic
unra
##aste
noah
nollywood
peru
##anship
expo
manure
feather
feathers
precon
prehist
arises
artery
clicking
interfer
cole
makeup
resh
moh
mocking
imposed
impulses
kindly
##ensively
phases
##ibo
##ounded
##acco
##roads
##berto
adhd
undergo
undersea
induced
boils
bollywood
humidity
embody
##ishes
drip
dried
commute
commander
##ictional
smugg
##aka
crashing
humanoid
guest
guests
flashing
bases
invites
##ubes
schwar
##resses
opec
oprah
lastly
relational
transnational
fuse
monk
patron
founders
planners
bites
traff
miniat
serial
##althy
recurs
questioned
grapp
bihar
elusive
##ocy
wondrous
careers
reply
projecting
warner
##grow
handic
handwr
hoo
holl
hobb
organizational
##ahumara
charging
internationally
roommate
passively
parabol
parrot
photons
acronym
tedster
ted20
##meer
modeled
##manuel
##ashes
pains
robin
confusion
confuse
langley
restored
excav
godd
calibr
assured
assault
arche
archety
archives
payments
payload
##pson
microp
viewers
viewpoint
harris
collide
refine
funders
collector
collections
predomin
provin
provocative
messing
barc
barbie
vienna
superno
shortage
difficulties
cybor
cycl
psychotic
sudh
photographic
squatter
##appropri
pressed
##ipper
structured
volts
princess
shook
considerably
urine
urgency
villagers
deadline
facade
ecologist
##luence
pollinators
preview
##rams
##ascar
transforms
carbonate
tablet
starving
definitions
closet
sniff
damaging
##lett
searched
crosses
breathtaking
davis
mechanically
homem
tarahumara
sequel
miracles
participated
bombers
susie
correction
sweats
judging
judaism
1987
fleet
liberating
saddam
##ammad
contributes
controllers
automated
urbanization
multiplic
demonstrating
ineff
chairman
verbs
vermeer
1969
israelis
historians
moscow
standardized
1974
gharial
husbands
pleasures
ignoring
diagnostics
cheaply
lacking
conductive
academia
sculptor
paintbrush
analyst
dolby
crux
contacted
bombing
grasslands
##ettes
maintained
browne
dragging
requirement
requirements
wearable
rewarded
simplify
stimulated
stimulating
saus
sprint
faiths
announcing
aspire
discarded
initiatives
encouragement
rubble
extracting
ruin
ruined
diplomatic
converting
verte
comparative
criticized
cuban
biochem
reproductive
encourages
extinctions
coordinated
gyre
gymn
begging
deriv
duplic
mentality
triggers
desperation
weighed
persuasive
jimmy
accumulating
collapsing
collapses
nitric
fulfilled
blanket
psychiatrist
puppets
ranges
toyota
chambers
aimed
theoretically
recipient
districts
philanthropic
sandwiches
miami
awarded
volcanoes
intrigued
##keeping
extremes
settlements
sparked
persistence
tutoring
gratification
bagh
veteran
quadru
joints
festivals
nickn
orbital
arrangements
immersion
guidelines
skiing
excessive
geeks
dubai
innoc
echoes
umbre
scheduled
neuroscientists
cochrane
divorced
molas
##uciating
interrupted
bipolar
annoy
picasso
sneak
ignorant
drifting
municip
interpreted
##hesive
discrimination
immigrant
imprison
submarine
narciss
bureaucratic
mahatma
disadvant
slaughter
sergey
telecommunic
disposal
syringe
indirectly
pessimistic
arguably
dengue
inconvenient
bahamas
stratosphere
copernicus
epilepsy
snapshot
lazy
moisture
photosynthesis
aorta
celestial
fmri
gilbert
lanka
tucked
##otrans
incarcer
suburbia
antidepressants
certificate
crochet
tobacco
libya
backpack
aerodynamic
vibration
compartment
cradle
postcards
hilarious
zambia
unhealthy
muhammad
insignific
penicillin
dimitri
overfishing
eduardo
aimee
whilst
excruciating
miniatur
41
59
750
aura
bim
bess
baking
cough
cush
dances
eri
fills
gb
gould
gph
gav
gears
grove
gaming
h5
jess
kent
kang
kiva
litter
mour
nails
owl
pest
pard
pud
paw
punk
puls
pension
sant
sara
tant
tier
vet
vanc
wounds
zk
zeros
##oot
##oam
##ocial
##een
##cen
##aj
##rd
##rice
##rial
##mur
##mad
##map
##mud
##uay
##liness
##kh
##bour
##burn
##nals
##human
##watch
##wright
##tp
##fus
##zwe
##jev
thera
##err
##atops
##nde
##ouver
toast
##esar
ape
apt
##anth
inward
inuit
inappropri
##orp
##orph
##iser
##itters
##icides
##leum
weaker
istan
beep
bends
reuse
reception
relying
##entiful
##sein
##seus
hacked
solly
##stood
quar
sting
stats
##idian
##igate
##igue
foraging
##opol
##oponte
##imity
##amics
liz
##itha
##thest
sean
abc
cane
canary
asyl
asphal
shave
shiny
negr
worn
atroc
chau
chlor
chunks
##rand
notor
##illas
frown
##ilizing
peek
conco
congreg
##umann
##oks
##oky
mao
##istrib
tel
##ifle
usda
spam
spines
plur
plentiful
acted
intimately
##ivable
##elf
imitate
sag
##api
unlim
##oseconds
leah
leaks
##agascar
feared
pretending
prelim
##itty
##uded
clap
##ndering
cohen
##feller
reserved
discont
disintegr
overload
muff
firstly
firsthand
brink
poop
ponds
backing
rovers
rocke
##anges
contempt
desks
##rovert
undercover
booming
boeing
emmanuel
differentiate
incidence
incidents
carve
carbs
strive
cried
humanities
blaming
##ucer
##xtap
##renhe
systemic
flute
flutes
flaws
instability
##avored
relent
powerfully
##peut
understandable
examined
examining
imaginations
patented
slim
centric
minnes
modify
servers
fours
appall
101
learner
##issipp
mommy
americas
lightly
elastic
readily
##ceptions
skim
repr
repos
lesser
behaving
hardwired
suppliers
energies
protons
headache
redistrib
charities
greed
seth
histories
##swana
marc
marco
popcorn
parade
distraction
eyew
glenn
##nec
autobi
##prop
deterg
propelled
restoring
defy
deflect
classified
classification
devote
ohio
geoff
treaties
excites
condem
netra
files
assert
marketers
audition
freeway
advancing
absent
resulting
plea
oneself
freaked
collects
messaging
mississipp
neurotrans
barbar
sensations
sugars
networked
journeys
journals
183
traded
doctrine
consumes
404
grounds
evolutionarily
irreg
silks
destined
causal
purse
strapped
seriousness
malignant
civilians
galva
revolutionize
seller
ecu
competence
meaningless
policemen
ern
posting
balances
ballot
speeding
transformations
awa
closes
passionately
activism
packets
samuel
prints
contextual
hopkins
blindfold
palms
detecting
mistaken
daf
daisy
policymakers
swept
addresses
receives
trickster
heroin
westerners
denied
dennis
logar
folder
determining
latitude
bloggers
yelling
pigmentation
demonstrations
motivations
mutant
##semble
1967
1962
1979
1976
hussein
graduation
madagascar
iraqi
roughness
hangs
##cellular
tours
joyful
puzzling
juxtap
append
replicator
epidemics
hamlet
indicating
commitments
incentiv
routes
dialect
coalition
sporting
senate
seniors
vegetation
vegetarian
##ennial
##riel
lifts
cowboy
punished
suitable
declar
aspen
manipulating
taped
mathematica
circumstance
converge
alexand
vaginas
instrumental
digitized
criticize
augment
mimicking
##nesday
lesbian
embarrassment
overwhelmingly
execute
seasonal
##world
geniuses
strangeness
dividend
pillars
memorize
rushed
concluded
accomplishment
tragedies
murderer
deployment
titanium
navigation
tolerant
cockpit
osama
##mala
delightful
poisoning
promotes
psychiatrists
bribes
adapting
anonymity
tweets
##namics
composite
anthropologists
attended
reframe
hubble
aggression
extremism
lucifer
##organisms
reconstructed
toothp
updated
exports
newtonian
perpetr
redefining
tempting
spraying
anatom
butterflies
recruited
distinguished
botswana
nerdy
binds
decoration
shirky
geeky
deliberate
leveraging
membranes
illuminating
substantially
sioux
survivor
victorian
contemplate
vividly
psychopathic
embodiment
nonviolence
kurzwe
administrative
administrators
revelations
dictatorship
peeling
patriot
swallowed
lifelike
siege
neglected
jacques
hazard
empathize
anthony
resurrect
tyrann
arkansas
transactions
immigrants
thylacines
arousal
ceramics
appointment
template
nanometers
gait
oakland
tectonic
scandal
repetition
administer
cafeter
subsequently
enforcement
disagreement
interdependence
rehearsal
wednesday
bladder
skateboard
caregivers
entitled
bulgaria
reptiles
adequate
landfill
stefan
lesterland
multimedia
miraculous
exhilarating
dazzling
sabbatical
prejudice
programmable
unnecessary
teapot
cliche
fingertips
mismatch
##isciplinary
whirlwind
sprawl
unthinkable
cymatics
multitasking
telegraph
marshmallow
georgetown
chernobyl
fahrenhe
sushi
sutherland
nevada
supernova
sudhir
ineffective
telecommunications
gphin
h5n1
vancouver
therapeut
negroponte
unlimited
preliminary
rockefeller
minnesota
mississippi
galvao
kurzweil
fahrenheit
56
54
92
bum
ced
cured
dair
dull
e8
eeg
fare
fences
fictional
gm
gs
gust
gib
gaza
hod
hust
ic
jig
jets
jams
joking
kabul
lbs
mard
mates
mbi
nt
nancy
pisa
rival
rica
ronald
sene
tying
turing
tides
ticking
vod
wales
xen
yep
##oac
##page
##eb
##cart
##card
##creen
##ross
##ridge
##ml
##mi
##mat
##minder
##uke
##lishing
##iard
##ker
##bish
##vo
##gens
##yss
##wire
##jah
thigh
##inology
##atized
##osaurus
##reate
##ingly
apathy
##any
##ori
##itations
##oteric
##ompass
wholes
weaving
weibo
beams
##uters
##vet
rebe
rezero
sopr
stitch
##idays
##igms
##igator
##urge
##urman
##chw
forged
##cends
##imps
##amil
##amel
##aments
##thet
sev
semen
abyss
pran
##oler
##olis
chk
meyer
noted
fraser
oral
pee
constr
concussion
maf
maid
maitre
##atemala
knots
alban
trance
tricer
##ifiable
progeria
outwe
outlet
outlines
##ected
spher
sponge
spotted
enri
uplif
plague
##ainted
##ogged
intoler
sao
sach
##aph
sued
compost
##action
unqu
uncont
##astrous
leo
leaking
leuke
##ousa
##reates
amen
amuse
peril
##anson
##agne
feces
agon
claus
inters
interstate
cobra
##feld
##ipotent
reservation
disin
disruption
discom
disprop
disastrous
##assic
##ensible
##aterrestrial
##aco
conting
idol
##roves
##roids
##look
adage
##ques
underlies
betting
emit
lett
##cock
##uctions
drums
scour
scram
##intosh
genomic
greatness
offensive
surpass
crut
cray
crane
blues
blades
guided
guatemala
aftermath
flame
studios
invasion
obtain
obey
##ressive
##weed
##wegian
playwright
reli
joins
helen
monks
monitors
monarchy
monologues
sled
slash
believer
solves
solitary
solitude
##atherine
sermon
medal
median
communism
recap
fins
finest
##atched
woo
behaves
behaved
possessions
hardy
supplement
formerly
handling
openly
probes
animate
proton
##ahili
redd
charitable
accused
cleans
curtain
swine
swamp
swahili
##virus
marble
paran
distort
eyel
momentous
##cribe
##ographically
inflict
chee
prophe
proposing
youngsters
resting
hearted
locals
geology
geologists
forens
diab
diary
assass
workshop
##rians
payche
draft
##ucker
craving
pasting
norse
norwegian
experimented
quicker
harass
babys
hyena
elevation
collagen
refres
universally
millimeters
diffuse
raj
racial
messen
messed
neurop
##ractable
##icultural
barn
barg
superp
superb
recordings
184
buyers
psyche
cops
conventions
identification
identifying
encrypt
encompass
printers
firemen
fireflies
dimin
violate
statues
malt
malle
paj
combust
unfamil
ecologically
ruling
salad
danced
prevented
eyeball
arrival
arranged
##borne
##ascal
negatives
dominating
johann
awak
burnt
burrow
burgl
bedrock
epit
cleaners
snails
functionality
grading
mobilize
packs
packaged
rainy
rainwater
miscon
temperate
participant
representations
forestry
climber
1988
1981
fascination
neighboring
uncles
denis
dennett
geneticist
thrilling
associations
sorrow
blogosphere
broadway
broadband
broadmo
enjoyment
arabs
pigmented
1965
hydroph
paradigms
bullets
1978
wiser
beatles
##shine
petals
petri
rotates
attracting
tasted
ancestral
bleach
adopting
towels
queue
strengthen
candles
hostility
pursued
wiki
##legic
indicated
indicators
exchanges
##marks
rewarding
accelerator
dialog
dispute
volunteered
transformational
illustrations
investigative
contractor
islamist
advertise
lifetimes
gapminder
referring
stunned
establishing
caution
tallest
congressional
discou
initiated
sophistication
compliment
oddly
pinnacle
idealism
concentrations
licensed
thirst
##rofoam
undo
converts
astronomer
cleverly
ensla
batman
casting
revenge
marched
analogies
1940s
claimed
dissent
pumping
confrontation
dotcom
vibrations
memorized
pitches
spirituality
insurgency
stretching
pinker
sinister
constitutes
troy
spells
advancement
algorithmic
venice
champagne
psychiatry
adjusted
coded
naj
downloaded
durable
unbelievably
hansen
clarify
attributed
pioneers
anthropology
borrowed
enhanced
advocating
advocacy
dumping
consultants
litigation
width
ethnicity
gamers
sediment
kissing
lucy
suspension
reconstruction
styrofoam
##blance
##glasses
helicopters
spreadshe
enterprises
synchrony
synchronize
twisted
hippie
exclusively
prolific
palestinians
saturated
amplify
outdoors
buffalo
accenture
reverber
ribbon
shredded
nazis
gadget
mantra
germans
sourced
yoga
yogurt
contagion
athletic
luke
##ithmic
protocols
fulfillment
hirsh
##abytes
lawns
peanut
antennae
shattered
blueprints
inhabitants
igbo
pornography
persever
kidnapped
submarines
prophet
misunderstood
proxy
bunker
relieved
extraterrestrial
acknowledged
denser
inertia
undermine
hypertext
cockroach
humpback
occasional
prevailing
homosexuality
intestine
brigades
immortal
accommodate
pediatrician
dysfunctional
plummet
deterior
empirical
squirrel
gabriel
kanzi
nostal
amphib
impatient
biomaterials
aisle
balkans
ddt
hockey
beverly
##olithic
cursor
trustworthy
counterparts
fountain
apprentice
astrolabe
gillian
quarks
transducer
hovering
unexplored
oblivious
ounce
plywood
browse
nanotubes
antiretroviral
lyrics
cucumber
ucla
unicorn
ted201
goddess
microprocess
baghdad
umbrella
pardon
sarajev
istanbul
asylum
neurotransmit
irregular
ecuador
logarithmic
alexandria
dairy
rebecca
maitreya
triceratops
leukemia
disproportion
unfamiliar
broadmoor
sarajevo
62
88
aversion
bree
bax
bitten
bounds
cis
cog
cures
cada
dw
dives
eure
elo
etern
eiff
fos
fitted
gum
ginger
hid
hog
hast
hott
hike
hiring
hannah
iow
icy
jr
km
kra
kik
kara
kerry
lis
lent
lud
lick
lumin
moth
motto
nk
nix
omin
pod
pore
pens
pope
pascal
rd
ration
raz
sult
sousa
tet
tso
tires
yad
yum
yang
yug
zen
zet
##pical
##eas
##eous
##cats
##manship
##uber
##lie
##iy
##daugh
##bust
##bath
##nb
##nas
##net
##vind
##vold
##vantage
##gar
##gle
##gone
##horn
##hole
##wick
##tw
##town
##table
##track
##fathers
##jad
##inis
##atis
##aturing
##oufl
##reas
##reach
##onian
toe
##enz
inoc
inaug
##orrh
##edical
##isol
##itic
##aro
##aspor
whack
wears
bean
beth
##utations
reus
##etto
soda
##ston
##sticks
stero
storing
stigm
##igration
##urg
##chi
##chool
forwards
##ople
ank
doom
##imi
##amie
liars
liability
gogg
heather
seym
abol
prair
shores
##oder
neo
attending
allan
alligator
##gender
##ulk
##ulas
exile
myri
myhr
macr
maze
alham
trim
trillions
justin
outstanding
outlook
outreach
usc
spears
envelop
upwards
seeks
plun
intractable
##ivores
sacks
savan
##emor
veg
una
tah
##ardy
hass
manchester
otherness
##uda
wellness
arsen
clark
twists
newest
coer
coated
coco
righteous
##ipe
##ipur
resume
startup
partisan
disson
overest
mubar
briqu
poke
poised
backstage
##assium
##ensing
phen
##iba
contamin
##plex
##berries
adore
underdog
##veland
daytime
herbie
emma
##ishn
scrap
scaven
##phem
##intend
##ellar
##ellers
caro
caric
cargo
##aku
##athetic
cripp
guides
decode
flapping
reminis
relay
powerless
##bec
conserve
##pend
##people
monaster
slap
sliced
soluble
highlands
serra
waterproof
complement
recreat
crest
questionna
elvis
atten
cellphones
exploding
capill
generators
visits
subset
corps
corros
handled
probable
coupled
futures
greet
greeted
speculation
setup
governors
curv
parable
educator
badge
midwest
tedious
tedwomen
moroc
autos
##tson
##strip
pictured
mattered
oppression
##insky
infilt
inflection
milan
waving
propri
casey
costing
##bright
heartbeat
chooses
classmates
devise
devils
virul
unto
netfl
filed
succ
diaspor
advising
advised
nighttime
extrapol
sunset
sunshine
bottlene
freest
operators
esoteric
neuro
##iculture
blackberry
potassium
technologist
technologically
superf
supernatural
granddaugh
laureates
interacts
illino
buyer
limp
psychologically
personalization
pickle
accessing
convict
darker
darkest
survives
sentient
encoded
specialization
coolest
##rooms
fireman
considerable
urch
violation
webcam
predictive
malware
requiring
bloodstream
softly
constell
dougl
critics
guesses
guessed
ahmad
sala
salman
salvation
policeman
typewriter
ballast
ports
portal
portions
burger
starve
##opsies
admired
lifting
##ofi
virtu
tended
tomb
skyrock
fluids
captcha
activation
activates
immigration
raining
wildly
debates
influenza
mistrust
wasteful
14th
judy
175
respecting
scrot
scrip
scrub
plasticity
constructive
liberated
liberties
logically
logistics
optimist
cardi
darn
turbo
publishers
employers
13th
forgetting
comfortably
geneva
jeep
torch
motivating
integral
commercially
lawsuits
verify
transporting
##belts
mrs
catches
renown
renov
gardening
taxonom
axe
rhex
##obia
tripled
cheapest
mammalian
hypnot
vaccinated
hangers
vastly
teeny
paulo
mitoch
rotation
correctness
branded
tourists
trafficking
harmless
bombard
churches
freshwater
mason
grassland
melts
##comed
demanded
seatbelts
defenders
departments
artificially
dragline
brightest
dials
dresses
bushes
succeeding
investigated
fossilized
sprink
pipelines
koreans
pilgr
ratios
atlas
consumerism
kickst
mystical
fischer
biomedical
rufus
concentrating
diplomats
thinner
mandarin
ceremon
cartoonists
isolate
commandment
beeh
1947
adventur
lesters
autonomously
polarization
lasers
thickness
welcomed
affirm
instructor
bathed
fertile
removes
antibiotic
dissolve
guts
pillar
pillow
scratching
macintosh
intensely
premier
slideshow
scarf
knocks
persuaded
vitality
pacemaker
astonishingly
devastation
spelled
elevators
nicer
crafted
suspects
aiming
bribery
elegance
anticipation
purchases
saltwater
railway
manifesto
conceived
mailbox
composers
recommended
transcendent
tragically
hubris
punched
casually
bulldo
stripes
paradoxically
compromised
fractals
bursts
suspicion
##bao
toothbrush
disturbed
dilemmas
hierarch
tearing
receptors
perpetual
fetuses
precurs
parasites
sponsors
cliffs
bolt
monitored
subtract
electrode
bouncing
acoustics
unfolds
screwed
leaning
chefs
stakeholders
immersive
refrigerators
chatting
immunity
nuanced
icelandic
miniature
alignment
1900s
berners
##piece
conquer
mozamb
delayed
victoria
contemplating
tenths
nathaniel
sufficiently
drowned
##minster
solely
peripher
magnetism
pancreas
hydrothermal
ripe
descendants
juris
executives
oysters
evaporate
culpr
nudge
counseling
tinker
transaction
favela
casualties
crocodiles
tbp
anecdote
bonnet
rudder
orthodox
imprint
exercises
iteration
cannib
proximity
novogr
disadvantage
restoration
restorative
gaga
lynn
hypertension
cockroaches
aye
cpu
prosec
carrots
masterpiece
masterpieces
cortisol
##birth
##fluid
sovereign
underpin
grammar
utilitarian
utopian
petrochemical
tapestries
thoroughly
mp3
withdraw
expenditure
crammed
consolation
odysseus
ottoman
sixty
serendipity
bilbao
spongy
comprised
twentieth
colombia
transfers
appetite
opponent
confirmed
arrogant
skydiving
intimidating
wizard
seizure
deceptive
patrick
denominator
jamaica
milliseconds
underestimated
ezra
http
yahoo
asymmet
plumbing
donnell
intermediate
desalination
fragrance
theorist
##rabbit
##ifferent
swarms
avoided
kahn
##zschild
mohamed
schwarzschild
holland
nickname
jessica
##cenium
inappropriate
pluripotent
declaration
senegal
vodka
wholesale
outweigh
enriquez
discomfort
encrypted
maltese
combustion
baxter
eureka
eloqu
eiffel
hottest
iowa
nixon
##eastern
reusable
goggles
seymour
myhrvold
alhambra
savanna
mubarak
monastery
netflix
diaspora
illinois
mitochond
novogratz
05
67
650
79
az
aar
bis
bast
bach
bred
bury
baff
cels
casc
dos
ding
ded
dated
dak
daring
dizzy
eh
fus
fern
ferm
fuss
git
gem
gell
gasses
hives
hats
ian
iphones
js
jere
jag
jars
kun
kaz
kits
kios
keral
krist
lan
lush
latt
liters
lumber
mounds
ni
nim
oo
pals
pores
rally
ranger
rapt
rogue
sard
sip
sway
sane
tres
taps
vs
vow
vie
vine
vint
wu
wack
wield
wakes
www
yor
##oard
##pse
##pad
##poles
##cation
##rr
##rates
##rising
##ritis
##mons
##uish
##lit
##lord
##lined
##das
##dest
##blo
##nick
##nels
##visions
##vana
##saw
##gate
##hed
##hic
##hake
##western
##waters
##tent
##far
##fol
##felt
##xig
##15
thy
thum
thai
theod
##eration
##atable
##atization
##oslav
anders
apex
oftent
##orient
##isp
##itous
##itates
##itness
##otte
##ometer
##ask
whol
whites
whipped
##icse
##icular
weave
beads
##vey
reign
reiter
reju
recharge
socks
sofa
##step
stark
stalin
##idt
##ignt
##urp
##changing
fork
anna
doh
liking
heath
##tha
##then
##thia
seab
seism
segreg
##olia
##olocation
canals
shak
comets
necr
neumann
chen
##race
franch
##ilk
##ilage
exem
deer
degrade
myc
mys
pelv
conform
connot
conversely
##umn
loft
loaf
mack
maize
knot
alab
tran
tril
troph
trunks
outp
usable
spor
sped
spokes
enact
upstairs
uptake
uprising
thinker
plots
plaster
plains
wholly
someplace
##cible
##ogging
intra
##apest
sund
##inee
veins
veiled
compression
compelled
uncon
unnatural
lend
##ousing
worldchanging
nob
perme
##abric
evac
whereby
preca
clam
cloning
intertw
coating
sheila
##acht
buffer
##ipse
disgu
overh
overre
##owness
impair
mug
ponder
##assum
phd
phara
##anga
desired
desirable
foam
##loying
ade
undergoing
betray
daycare
grizz
emitting
ideally
drilled
scars
mayan
##plan
smack
carrier
techno
crushing
##fulness
bliss
childbirth
guiding
simulations
decay
decisive
flips
flawed
remorse
##wey
turnar
joan
fucking
consort
##pecies
monet
monetary
slot
engulf
okapi
terence
modifying
seren
mediate
mediated
waterfront
datas
growers
crease
mete
metall
computations
grail
gravel
##ocamp
attor
wobb
economical
capit
##grown
##grass
subd
supporters
dolls
formats
protagon
protesters
##aha
##ahedron
runway
runner
coumar
futur
glove
charm
greedy
valleys
cleared
cleveland
regulated
processors
camero
airstream
curse
curate
swims
shareholders
##meister
autumn
##crime
##ographers
detr
infused
waist
proposes
amputation
robicse
confession
devi
devised
devoid
positives
untouched
geographically
foresee
menop
diets
calf
marketplaces
fuller
##pective
audacity
advise
drake
retinal
craz
crappy
extracellular
##berspace
increments
aviv
microm
toolbox
sunfl
sunfish
harming
complexities
eleven
collisions
anton
antic
circus
listener
holders
predatory
provider
provoke
neurobi
neurologic
blackboard
pottery
colleges
barber
viking
shortest
euro
summon
1800s
chemists
interacted
interactivity
majesty
eyesight
cyberspace
psyched
communicates
brace
branding
squaw
401
nationalism
originated
billboards
25th
specialty
multicultural
cooled
obsc
armies
knowledgeable
strap
stranded
modernism
malaw
telep
bloodline
droplet
pathetic
prominent
ecl
mainland
ruler
expresses
polling
pollination
polluted
rocky
rocking
benefited
esther
arrives
domination
synapse
burma
definitive
reactive
divinity
interval
skinny
johns
microorganisms
budapest
britann
homer
##books
skycar
captivity
immoral
translations
threatens
bankrupt
blindly
fracking
accepts
concerning
discusses
kilow
heroism
scrut
genesis
positioning
banal
randi
cartilage
insecurity
innovator
affordability
mentioning
troubles
constructing
celebrates
celebrities
lowered
saddle
turbine
financed
familiarity
throwaway
latent
tuning
slightest
dependency
##clair
selecting
selectively
##bbing
randomized
240
customs
infrastructures
proscenium
michoac
madison
manufactured
opposing
utilize
customized
bandura
conducts
alternate
tasty
nanny
motorbi
intellectually
librarians
ambient
rebels
impressions
queer
puzzled
bombed
appealed
freshman
credibility
merry
masks
rowing
bonuses
melan
darwinism
replica
stressful
substances
wikile
##craper
proudly
fortunes
dressing
tickle
vanished
documentation
investigations
agreements
reinforce
##ylon
##riends
perceiving
limitless
mystic
recycl
sights
qualify
##ersonic
discourse
initiate
complaint
rubbish
unsafe
comparisons
dominican
astonished
mosquitoes
cubes
lesion
negotiated
hillary
regarded
wirelessly
antibody
dereg
harvested
dedication
dissip
dissolved
cybercrime
vibrate
##ambling
derive
injecting
featured
sinclair
parallels
boomers
flashlight
earthquakes
improvising
dusty
stacking
persuasion
limbic
exploited
thermo
chiefs
prescriptions
accumulated
osc
spelling
flooded
pandemics
##ausible
jesse
purchasing
purchased
currencies
manifestations
buckminster
recommendation
pioneered
enhances
##keeper
consulting
extremist
wrapping
disappointment
degrading
orphans
schizophrenic
gracefully
charlotte
nonprofits
exporting
arthritis
protestant
ferr
vitro
whiskey
stomat
butterfly
evelyn
subsidize
pirated
piracy
editorial
redwoods
absorbing
nerds
dismay
hippocamp
forbidden
interconnectedness
sketching
harnessing
hawaiian
stimuli
yemeni
incorrect
immunization
napkin
sewage
proceeded
resemblance
inflate
inflamm
battling
tactile
doodle
leveraged
numerical
unleash
unleashed
microphones
summarized
cruelty
conquered
tasmania
electromagnet
bmi
bipart
fiddle
hints
outbreaks
##roverted
browsing
ventilated
kuwa
reversal
uninter
uninhab
descended
scraped
jurassic
sourcing
preacher
blurry
allevi
sidewalks
reassuring
interpreting
rusty
enriched
manuscripts
resurrection
surreal
submersibles
psychoan
aroused
exercising
merging
pixels
courtship
microseconds
moderate
bruno
skyscraper
symbiotic
symbiosis
cynthia
mutilated
perfume
occasions
reciprocity
tadpoles
##birds
sovereignt
##cribed
irrespective
admiration
admittedly
skepticism
kittens
haunted
dissect
carcinogens
balcony
balconies
constituency
marginalized
unchanged
reservations
scattered
corridors
proportional
locomotion
hominid
laura
##oirs
humiliation
metastases
cellulose
ecstasy
turbulent
mercury
congratulations
anchor
pronounced
sacrifices
legitimacy
theatre
sobering
delegation
volatile
sleeve
jabbar
mellon
evangelical
splashy
nashville
rearrange
airbnb
practitioners
prescribed
aboriginal
unravel
trafficked
miniaturization
asphalt
atrocities
sagmeister
appalling
eyewitness
soprano
crutches
diabetic
paycheck
superpowers
johannes
ominous
sultan
yugoslav
steroids
myriad
carolyn
morocco
douglas
mozambique
peripheral
celsius
fusiform
kerala
trespass
oftentimes
wholeness
rejuven
precaution
pharaoh
coumarin
robicsek
britannica
71
avert
bb
bif
bake
bapt
baked
bingo
cess
cun
cem
cater
cork
cites
celine
catherine
dl
db
ds
duct
daph
eer
euc
euth
eruption
eaves
fas
font
fax
fij
gom
jake
jared
kicking
koh
kofi
lor
lig
mong
mites
nas
nour
nina
nylon
oily
ome
pse
pars
poker
rf
ras
roth
ruth
rounds
raced
rivals
ropes
sist
tat
tand
tint
tether
tung
tata
vc
vest
verm
vault
yoch
zoning
##pool
##eer
##eel
##crap
##avers
##rall
##rating
##rals
##riction
##mel
##milk
##last
##lass
##lah
##lider
##ien
##dr
##kut
##kens
##khar
##kirts
##bines
##gam
##gles
##yo
##hem
##hire
##hift
##harm
##zers
##zac
##jay
thurs
##erk
##erting
##inness
##aton
##atra
##atomic
##oscopic
##onium
tore
tokens
##ench
##enstein
inad
ingest
inversion
##ede
##itical
##oter
##omi
##omat
##ometric
whiz
##icated
##lev
##lexic
isot
bef
##utt
##utans
reformation
rebo
rebox
reorgan
##etine
quir
stub
staged
##chen
foragers
##opedic
anne
anarchy
anemia
dock
doomed
##imal
##image
##ithe
gogh
hein
heap
abe
canoe
shines
shorth
##terol
neb
choles
##raib
mech
allah
fran
##anty
##antically
exterior
dee
orion
cong
##umental
##artu
##arted
lobb
mahab
maeda
als
albe
tease
tru
##inda
##ifi
##ifier
proverb
prozac
##inky
##allows
##una
enlar
upw
upbr
upgrad
##iely
##hertz
pled
##oglo
intens
##elle
imitating
sagan
##ouri
unions
uncondition
##gham
leaked
levi
levin
tapped
tapping
##iza
##arez
nozz
amid
evol
evoke
manic
mania
mango
##agra
ariely
clone
clunk
interst
intercept
interrel
interplay
newcast
coy
cox
cocon
reset
overboard
overview
mock
impass
imperson
impover
##ryn
bride
brass
brighter
pointer
roast
gothic
hispan
##ibi
descent
deserved
descart
idle
##centric
##bergh
adren
adams
##odynamics
indef
indifferent
bets
takeoff
grie
grants
granny
emper
emits
emulate
##coher
##ishna
##ucted
downhill
committing
smiled
cargill
carriage
##akh
cries
craters
##yses
blair
blamed
##ucive
##ilever
builder
builders
simpson
flatter
flavors
remn
remov
coloss
relies
endow
endlessly
brainer
insulation
courty
powering
beforehand
thankful
monuments
examination
slows
believers
solic
oklah
nato
modules
sermons
edition
edison
103
recline
cres
creations
grazing
biking
readings
attain
##azo
##azing
woven
projector
warned
##gras
hardworking
visibility
suppression
supplements
coron
handing
hoop
##ugging
##uguay
protests
halt
greens
stuffed
martha
photore
photoc
sounding
soundtrack
distortion
##derabad
socio
tyler
gland
glaze
morgan
autopsy
##strom
detached
infring
infamous
cheek
props
##nold
ampute
##bold
confron
confuci
restriction
##works
##bras
heartbre
heartbreaking
##ilton
magically
classify
posing
geopol
treats
conducive
filtered
calam
audacious
payback
ordering
craw
##rowing
revis
trainer
depicted
avid
sunk
individuality
hygi
hyderabad
massage
dealer
delusions
naturalist
deathbed
literate
freaks
nonverb
predisp
missouri
##tedly
barren
barbec
sensibility
voila
sumness
laundering
laureate
footst
handshake
traders
commonplace
fallout
communicable
richards
penelope
essays
floats
flocks
papercut
##ospace
conviction
encoder
specialize
situated
silently
philharm
diminished
uruguay
straps
malays
northeastern
sustainably
privately
dropout
carson
pathogen
pathogenic
combines
hunted
guessing
risked
##luent
aha
pollinate
salv
salute
salaries
competitions
rockett
erased
termites
generalize
smartphones
arenas
domains
boyle
ethos
peacekeepers
synag
##ounce
progressing
bedou
bedtime
admission
gradual
budrus
fantas
hospitality
sandstone
variants
homicide
doorstep
fluke
remarks
##pole
##cussions
thousandth
##ethical
mobilized
cooks
authorized
##uggets
sleepy
appearances
spectral
catar
sanity
samar
sampling
accounted
angola
blinded
palin
palette
influencing
annan
annih
wastewater
sweater
sweating
judged
electrified
178
kilo
flee
constructions
geneticists
turbines
thrill
boarding
colder
analyses
employer
manageable
tunnels
urbanism
comforting
hurdy
jeop
indiana
lawsuit
applaud
destroys
prosthetics
supplying
wiscons
ghraib
renamed
fashionable
mixes
##shot
diagnosing
breadth
lacks
lacked
##renched
foreigners
linus
mortal
chicks
vaccination
rotated
recovering
novelist
metaphorically
blending
negatively
invisibility
hosts
hostage
counteract
divergent
mercy
cloudy
melodies
splitting
headset
mclu
zoe
horribly
horrifying
indicator
simplified
exhibits
altos
clocks
makoko
disputes
intellectuals
peaked
illustrated
marty
curiously
belonged
##doch
reformers
declare
##oxy
liespot
discrete
heightened
janitors
licenses
unders
occupying
pyg
pyth
surveyed
bathing
analogous
consistency
1948
semic
semester
hillis
hillside
regarding
ridicule
juliet
coordinates
stretches
clinicians
bathe
deceive
dedicate
pumped
fifths
rwandan
derartu
pitched
whistled
storytellers
fragility
censored
cornell
scripture
scriptures
nutritious
lifestyles
pharmacy
flowering
implementation
troop
pyramids
synthesized
synthesizer
365
loudly
uncommon
intentionally
filtering
naomi
rejection
domesticated
migrated
migrating
lyndon
wiping
christianity
relaxation
outsource
outsourcing
outskirts
consultant
extremists
skeptics
bullsh
observatory
savannah
radiologists
kisses
lifesaver
lucas
highlights
doughnut
updates
branching
hindi
crews
tempted
buttermilk
synchronized
evaluation
recruiting
subtit
summaries
juggler
inhabited
dismant
jacobs
crowdsource
dentists
cabinets
orphaned
1920s
temporarily
maryland
stirring
brutality
intervening
molded
restrictions
unconsciously
creek
cassette
resembles
redesigning
borne
pcbs
aligned
grabbing
conveniently
comprehension
intersect
buffet
settling
biped
contamination
inhibit
gurdy
ribs
tidying
calendars
deprived
1908
recreation
deposit
jordans
rossy
biofuel
nyu
priests
permits
tunisian
prostitutes
offenders
exquisitely
advisers
divides
droughts
addictive
hamburgers
cdc
unreal
unveil
precedent
reckless
orthopedic
facilitate
puffs
dismissed
747
orangutans
slaughtered
appointed
caval
vivian
compensate
prestige
disclosure
overlooked
sergeant
specimen
wavelengths
hectares
conjunction
syringes
skyscrap
repetitive
freudian
cynical
advertisement
frederick
subsequent
##ophysics
reciprocal
tadpole
utero
uterus
immortality
tapestry
spawning
tulu
wrinkles
corridor
curtis
curtains
proportions
hominids
heterosexual
lindbergh
socket
rooftop
rooftops
granular
emancip
centrif
robbins
sanctuary
paleontologist
slippery
carpenter
mosses
stainless
splend
secrecy
contributors
inconsistent
pellets
remoteness
biodegrad
redundancy
cycling
eyebrows
taxpayer
megawatts
auschw
dmca
minto
deleted
enrolled
compliance
feasible
charismatic
spectroscopy
rebellion
reinvented
pavement
abdomen
nephew
enforced
barcode
cyborg
homemade
quadruple
imprisoned
disadvantaged
insignificant
erik
kentucky
##muddin
discontin
autobiographical
ernest
cafeteria
xenoph
seventy
spherical
sachs
prophecy
malleable
burglar
discoura
najmuddin
hirshhorn
breeze
fostered
kiki
zetas
unaids
briquettes
reminiscent
curvature
freestyle
superficial
renowned
pilgrimage
jurisd
aaron
franchise
exempl
alabama
adept
meteor
capitol
cameroon
recyclable
stomatop
bipartisan
kuwait
cunning
daphne
pseud
yochai
thursday
inadvert
reboot
reboxetine
shorthand
cholesterol
albeit
upbringing
##oglobin
leviathan
newcastle
descartes
emperor
removal
courtyard
oklahoma
confronting
nonverbals
philharmonic
malaysia
annihil
wisconsin
skyscrapers
auschwitz
51
63
61
87
aveling
bau
cc
cb
dor
dess
dus
dice
dhar
ebol
ful
fist
fel
fren
fused
gim
g20
hc
hic
hose
jpl
jug
kas
kerm
kites
ling
lon
lid
lav
loren
ming
nope
nino
oed
oars
oasis
ping
pom
pong
pach
pater
porous
pests
rm
ral
rim
rah
rushing
rca
rifle
sain
sans
sins
tk
tn
tus
ue
uc
vil
vamp
wurman
xero
yin
yuc
yuck
zig
zapp
##pent
##pop
##person
##ean
##eers
##evelop
##cion
##cro
##catch
##coms
##aires
##affe
##run
##rne
##rings
##uza
##len
##laug
##ieter
##dated
##dale
##kets
##kman
##kley
##bis
##bly
##bart
##non
##nity
##vidian
##sky
##game
##gium
##galy
##gassum
##yd
##yards
##yrin
##ho
##with
##wart
##woman
##jour
##xter
thal
thorn
##atan
##atizing
##atross
##oub
##oso
##osures
##osoph
android
tol
toros
##esium
inland
inference
incoher
##alism
##orum
##orously
##isse
##itized
##itute
##itators
##arking
##omod
##omatic
##icity
##icem
##icidal
weld
##llular
rey
rejo
revert
rewr
reintegr
reuters
oneness
hail
hacks
haidt
##cture
##ldom
##aya
sovi
quas
quake
quorum
stalk
stance
starr
steth
stung
styl
##chu
quoting
forage
forger
##opathy
ans
anesthes
doable
##imil
##ereal
##iro
##irth
##amer
##amish
livable
goof
hew
##ths
withstand
seated
seize
seoul
seldom
prick
prak
primes
pradesh
##olingo
butch
cans
cance
##aders
asc
shaw
shalt
shaman
neon
atala
chass
chased
thereaf
##oulder
mend
allison
alliances
friv
##geist
##ulators
##ustomed
exert
excel
exuber
deem
delet
dexter
pend
peac
locks
maz
macc
mailing
##ista
alisa
altering
teem
outdated
spy
spun
spik
enric
upbeat
##ieber
plag
pluck
##icha
byrne
actress
imb
imam
sage
sailed
suited
sucking
suicidal
##ostatic
vendor
compiled
compiler
unison
unification
unborn
unethical
##izens
noon
amd
amber
amnes
perimeter
##ansky
expenses
##agic
feud
pref
prego
aral
twink
newf
coh
coil
sheikh
shekhar
bully
resin
reside
disres
dislike
overst
overcoming
overflow
moan
mobs
molly
imposing
brin
brist
brine
poignant
##pta
backbone
robe
kinder
##assified
##icellular
##acer
##acies
acne
acuity
idiots
adorable
adhesive
sys
indis
betty
bobby
##omegaly
grids
grilled
humbled
humbling
herds
herbs
hertz
downward
differentiated
scum
commemor
realms
smashing
smashed
incur
incap
carmen
##akable
offense
offline
offset
cruc
persian
##iley
childish
guild
guinness
gupta
afterlife
percentile
earle
simulating
##reduci
invas
invading
invitations
owning
obstruct
instill
belts
belgium
turnover
imported
relating
reliance
joey
brainwaves
insides
##beans
considers
##peace
mono
monumental
examines
slack
engra
traction
tracing
trails
terry
modification
serpent
meds
meditate
##othy
extroverts
105
questionable
graves
bioh
biennial
celled
laramie
skid
skating
caret
##conomic
capric
capgras
lessig
warps
stuart
##grades
##atively
booking
lively
##aleen
preschool
substr
handbags
openings
organizers
energized
demise
demoral
entries
speculate
futureless
accustomed
regist
regards
regulating
connective
connectomes
camoufl
governing
airlines
swo
swore
swings
swoll
swirl
marital
parse
acromegaly
sociology
sociologist
sociologists
glance
glider
breton
teds
oppressed
##insula
propensity
giraffe
macho
amput
robinson
restrain
restless
costumes
##mostat
blooms
labyrin
defenses
continual
deval
untie
untapped
treatable
1000
filthy
trending
tremor
calcut
memetics
assay
archival
dravidian
issuing
greener
greening
greenpeace
crafting
objection
windsh
micron
maths
baba
risen
risking
hype
massacre
collins
territories
antiqu
clearer
teamed
teamwork
teammates
refueling
oceanographic
universality
millig
holder
presently
frees
freaking
rais
collectors
provoked
misses
missiles
neurologist
##queen
baron
yorkers
temples
summed
summers
181
1800
lauren
bluegrass
doctrines
limiting
personalize
perfected
brack
embed
squash
squirt
pencils
peninsula
inspires
paperwork
##retched
convuls
irreduci
originate
filmmaking
multid
seaweed
volt
volvo
firewall
philips
violated
circled
civilized
visualizations
impacting
broch
camping
campfire
revolutionized
movable
critter
guesswork
egos
pollock
polluting
dana
err
estonia
mounting
##borough
favorable
##ika
##arried
degener
writings
ethically
synonym
portfol
pund
pups
necessity
progressed
soundscapes
bedside
tracker
snack
snail
snuck
snipp
princip
conversion
microbi
microfin
microfluid
capitalists
sonic
sandy
plantation
homage
virtuous
sticker
tendencies
tomatoes
skyline
fluent
fluff
complication
##ethear
##uitous
magnesium
separately
collaborated
spectr
spectacle
asthm
sangham
sampled
goldberg
accountants
misd
misle
debut
debating
blinds
detects
losers
annie
benches
bennett
sweethear
climbs
respectable
launches
cartel
ode
liberate
darling
financing
inventive
environmentalists
tvs
tunes
tenure
tenacious
broaden
2100
genealog
banging
##ilingual
multiplying
nationally
fatigue
muti
mutates
mutants
blockbust
scanners
1966
taskrabbit
hydro
gatherer
gatherers
popularity
##otype
astrot
struggles
##theses
graduating
madly
##shmi
austrian
smelling
smelled
breastfe
doubts
garrett
gentler
mexicans
vaccinate
vastness
applicable
forgery
petrol
paula
pauling
membership
rotting
tensions
cooperating
bleed
bleep
bleak
blended
fedex
touring
elemental
australop
australians
rebreat
crucially
queues
strengthening
freshmen
gallup
hosted
adaptations
diverge
merced
habitable
##etta
##coma
replicated
stresses
mcqueen
zooming
horrified
shrine
lunches
roundab
repeats
obsessive
churchill
exchanging
clicked
layered
breathed
informs
illustrator
contractors
replen
replay
shutter
martian
preferably
cowork
##holder
##linear
frustrations
kicks
unpack
implies
tapes
idealistic
solidarity
1953
disciplined
hyperactivity
witnessing
ensler
marching
ritz
criticizing
220
tentacles
beekeeping
cubicle
semin
professionally
lengths
holidays
lesions
leslie
polarized
virgins
welcoming
spiderman
ridiculously
affluence
absorbs
rhyme
washes
dissert
explosive
explosives
gym
sari
sargassum
bells
censor
duh
duolingo
assisted
##hrase
rebuilt
rabbis
navigating
knocking
plugging
wingsuit
thermostat
ethiopian
squeamish
vocational
synthesizing
transplantation
poisonous
smoothly
nicest
venues
fisherman
migrant
elegantly
tweak
enthrall
clarke
caroline
crackers
leapfr
aerospace
acidification
bullying
sediments
wraps
deafness
disappointing
arrowheads
proposals
prosperous
highlighted
veterin
chopin
hallucination
unhappiness
nominate
velcro
brooks
dyst
chimneys
boredom
boltz
weddings
##fran
albatross
buddhism
squeezing
bosses
dyson
dyslexic
##enhower
forbes
transmitter
augustine
binding
dilig
lamps
leaned
correlate
correlations
tunneling
prolong
1929
distractions
irrever
irrevers
refrigeration
lapar
brutally
fluctus
fluctuation
columbus
sewers
overlay
overlapping
devotion
hybrids
loosely
coincident
catastrophes
dvds
pierre
molten
##charged
lebanese
kleiber
alberta
intersections
buffett
undergraduates
schemes
##criptions
fiddling
sneakers
tidy
contested
enhancement
kinect
kinetic
endeavors
recreational
deposited
depositing
diane
porridge
presumption
benchmark
queensland
chunky
alleged
constitutional
tibetan
culm
offend
forecasting
adviser
pesticide
shattering
precipice
disparity
discriminate
1858
whispering
anecdotes
unveils
preceding
atmospheres
ranked
plutonium
kidnapping
prophets
misunderstanding
pedestrians
championship
stamps
exaggeration
oranges
regulators
regulatory
gorilla
depleted
depletion
underwent
inserted
superheroes
nailed
papua
vectors
hectare
allocation
brunel
undermining
mutilation
merchand
matthieu
advertisers
lemonade
cafes
hijack
hijacked
kelley
rumi
exceeds
defects
bundle
recurrent
brewing
legislative
contradictions
niece
ovarian
wrestle
staple
slammed
singularity
##cribers
maui
haunting
dissection
grinding
petroleum
reinforced
bumblebees
kaluza
lurking
##volta
spearhead
disseminate
possessed
odyssey
laurie
nikola
yawn
poachers
ecstatic
thermodynamics
bacon
gourmet
anesthet
shuffle
undertaking
toddler
fiercely
kaaba
mckin
anomal
anomaly
chandler
exclude
embarked
jealous
apocalypse
weeping
paraphrase
preoccupied
bailout
eisenhower
##culture
syllab
landmines
cuis
golfer
prehistoric
reshap
mockingbird
grappling
handwriting
predominantly
provinces
innocence
annoyed
bimetal
kangar
repository
detergent
geoffrey
incentivize
toothpaste
administered
therapeutic
marduk
pranav
uplifting
uncontroll
amusement
agonizing
reddit
forensic
messenger
denisov
eternity
luminous
dissonance
recreating
questionnaire
capillary
corrosive
granddaughter
convictions
tombstone
precursor
mitochondrial
lattice
seismic
segregated
pelvis
trophy
intertwined
grizzly
serenity
dataset
subdiv
wikileaks
oscill
hippocampus
uninhabited
psychoanaly
sovereignty
eucl
mongolia
impoverished
indefin
colossal
coronary
photorecept
barbecue
footsteps
synagogue
bedouin
samaritan
jeopardy
mcluhan
bullshit
splendid
inadvertently
dessert
ebola
ralph
xerox
soviets
anesthesi
prakash
chassis
thereafter
frivol
deemed
maccready
swollen
labyrinth
calcutta
windshield
microfinance
asthmatic
sanghamitra
boltzmann
2d
550
7th
averse
aaa
bing
bour
bia
bount
bows
berm
bachel
bilingual
cud
cerv
cores
cfo
cesar
dill
dand
dud
dime
ditch
dup
dotted
dwind
ew
eul
eject
fow
fide
fats
fighter
faded
gia
gren
gail
gathers
hd
hos
hart
hulk
jm
jy
kw
kol
kins
lod
loun
lanc
mw
mam
mous
mound
malth
mural
nir
nand
nab
nile
nug
naming
nbc
ost
pp
pv
pall
pony
poking
rer
rive
rash
rake
rives
ripping
sq
ses
sow
sut
sul
sire
tz
tse
tux
umar
vain
venom
vantage
wad
wand
wang
wade
wines
wolves
xia
yan
yay
yam
yak
zin
zur
##obe
##overs
##oids
##ozo
##pans
##paper
##ech
##elect
##ehy
##cu
##casters
##rug
##mens
##made
##mets
##los
##lest
##link
##lich
##lap
##lash
##iam
##iose
##iken
##iencies
##kina
##bus
##bard
##bars
##vre
##vins
##vitation
##sum
##gic
##yus
##wives
##ti
##zv
##jet
##just
##jans
theaters
##erals
##inav
##atologist
##ndt
##osa
##osso
##reet
##inges
##onin
torah
##enburg
##encia
##anus
##animate
##anna
inac
ingr
inks
inund
inhal
##alm
##alle
##aline
##alitarian
##isen
##isel
##ito
##itiveness
##itgeist
##otam
##omon
##omore
##asw
##asth
##asma
weed
##llie
##llip
beers
begs
##utz
##utable
##utilized
##vetson
##ioned
reich
reapp
ont
soar
soak
##sten
##stan
##station
##still
##staking
##stoy
quin
stove
stumble
stumbling
##idated
##ighing
##igious
##change
forums
##opolitan
##opotam
anew
wasps
doyle
##imation
##irling
liar
goo
heats
withheld
abusive
pries
##olese
##olux
canon
canning
##adors
ascent
##terdam
atoll
atkins
chir
choking
chorus
choked
##rax
theremin
##illery
##illips
fridge
fringe
##ilight
##ilizes
##ilocks
##anti
##ulian
##ulars
##ustible
##estro
exacer
somber
deuts
deformed
dehuman
orbits
orkut
peg
conso
conne
##artic
loot
lovel
lovins
lollip
mae
maver
maine
maestro
##cker
knob
aless
alps
alberto
teas
tray
truce
##indrop
proct
outliers
usb
usher
spig
spur
spans
spilling
spiel
spouses
##unes
enl
ench
ensh
enhan
ensemble
upstream
upstate
uphill
##ando
##ppings
plumes
plumber
placent
bycatch
intake
introverted
##ivo
##elic
##elity
suv
sufi
##ostor
##emption
vending
compiling
composing
##ourced
unpr
unites
unaff
uniqu
unreg
unrest
lease
leaps
workload
workplaces
noam
nova
ample
amend
amoe
permit
hash
##abs
donating
manned
willie
##agency
featuring
agar
agony
arnold
clo
cling
clen
clad
clown
claw
clogged
interiors
interagency
twig
twitch
twilight
anyways
coe
coaut
cobb
buoy
resign
resnick
##iah
parting
partition
disen
disem
disfig
overe
overs
overcon
moi
impending
impostor
##ryst
##rylic
##ryption
brits
##pty
##irection
rook
kindle
##ensitive
##ensibly
phoned
phillips
##acency
contour
##lov
underutilized
beta
evenings
boo
boll
boast
bonding
goodall
grips
humorous
herring
herald
emble
##coc
dries
drones
scares
scorp
##phen
##phel
maya
##arko
carriers
##forms
##ricia
strad
striving
crony
humanly
humanize
humanistic
persists
blu
bloss
blush
##renches
floss
flakes
floren
longitude
##ndson
coltan
schrod
##avan
opium
##week
imports
joys
jolly
endemic
endgame
insu
transitions
translu
transgender
kew
artisan
artillery
patches
patricia
slick
slipped
##erger
##ilyn
biting
sorted
solids
solvable
traced
trawling
modem
module
modalities
fourteen
edith
watering
communion
completing
learners
recol
metron
lightbul
gravitation
bios
bioph
##ocene
farthest
repel
repurp
warp
warmed
##dson
healthiest
possession
workings
##aley
presume
changer
submission
subatomic
suppressed
formations
formald
formulas
handheld
hock
hoff
holly
probabilities
runners
sings
funerals
headlights
headwaters
halved
redevelop
redemption
earthly
greeting
2000s
valde
procession
socialism
curl
curb
curled
swinging
swallows
##viruses
productions
marin
marines
markings
marilyn
signaling
glands
makeshift
topography
morals
standstill
allowance
##ographs
##llows
amazes
##resence
cheval
propon
propeller
listing
lateral
painstaking
##bole
robbie
costume
##brates
defensive
deflation
heartfelt
bothers
locate
testament
geys
geiger
foreplay
publicity
assurance
audible
freezes
lineage
muster
retal
retaining
deepening
greenville
crave
lander
landmark
stealth
objectivity
objectives
deput
harb
harmed
##ursion
collusion
colliding
territor
radiant
dealers
motives
antelope
employing
investor
##atorium
listeners
caucas
presenter
ragh
raindrop
nonin
provision
neuromod
barcel
vik
superv
grandiose
protections
recorders
182
1850
chemo
chemically
footnote
typography
breakup
cyst
institutes
brag
brah
brake
squat
squish
picky
##retion
darkly
winn
nationality
fished
sentiment
sentiments
encaps
encryption
multicellular
causality
fearful
shove
shoved
benevol
violinist
weblog
webpage
predictably
modernity
hospice
mali
malicious
televisions
medicare
impacted
privatization
worthless
facet
layma
egalitarian
rulers
salam
salts
competed
rockwell
furious
benefiting
postp
terminology
dinners
nucleic
tablets
tabletop
synergy
riders
burq
burkina
textures
reacted
epoxy
zeroes
admitting
divisions
damas
damages
damned
sandel
##iaries
attacker
homogene
births
##ogeny
captiv
captains
seques
165
##ethyl
cookbook
panicked
sleeps
separates
packet
packard
packages
goldman
goldilocks
fingern
misch
misuse
magicians
##annon
palpable
bomber
suss
christina
benz
infects
electrolux
receivers
uncanny
##repared
afforded
fueling
raping
celebratory
lowering
##itius
rollers
libert
saddest
logos
tradeoff
boardroom
afghans
occurrence
weights
##efined
automation
automate
hurting
hurdle
hells
arable
aravind
bangs
jee
motivational
motivators
mutate
2013
tumble
mosques
microscopes
wealthier
tailor
tailed
prosthesis
prostheses
1977
1971
beatrice
ghetto
##rupted
##shed
smelly
utah
diagnoses
doubles
rhode
shocks
resisted
garment
foreigner
hypers
hypother
shooter
agreeing
pete
missionary
sickness
fellowship
photovolta
sculptural
narration
tasting
##harata
juicy
mastered
masse
##ettos
spotlight
targeting
installing
creationists
shrunk
repeating
accordingly
##haustible
sophia
sophomore
bowling
dietary
dialed
altar
altitudes
dispens
vanity
vanilla
safest
resourceful
##habi
investigator
cosmopolitan
implicated
islamists
replaces
sprout
horsepower
transitional
stupidity
neurosurge
reforming
orchard
pakistanis
colonized
colonization
ganges
qualitative
aspiring
asperger
unprepared
pinch
extracts
1954
sweetness
##amento
abstractions
undes
undoub
hyperbole
mandatory
containment
minimally
alexis
nesting
1940
##nesian
holiness
interpretations
230
buddies
paddle
paddy
thicker
jerk
julius
affair
afflict
observers
honeybee
labeling
vibrio
polyg
polymers
zeitgeist
premium
transferring
louise
hooks
breeds
constitute
rigged
malls
stacked
decreases
decreasing
instinctive
wingspan
ashes
implementing
controversies
wisely
dignified
sacramento
gladwell
elevates
outputs
intentioned
promoted
venue
1939
disgusted
##imentary
anticipating
durga
rails
##ouston
recipients
abandoning
ninja
ninete
skulls
lunatic
conceit
upsetting
smithson
inequalities
gandh
sixths
relaxing
punchline
outsider
outsiders
trajectories
selam
widening
observable
seductive
radiologist
neatly
sparks
lifespans
rodr
##organism
exported
coaches
protesting
bait
ferry
tamil
chopped
nomadic
nominee
redefined
leonard
diesel
tanzanian
buster
pirates
uniforms
juggle
twisting
mimicry
croat
paleo
##hhhh
requested
dilute
decorated
harnessed
orphanages
1928
immunized
hemispher
dubious
inexhaustible
cherry
cherish
marathons
nameless
proceeding
redesigned
deficits
deliberation
embryos
bosnian
piero
tactical
illuminate
linguists
articulated
articulating
niches
friendships
faulty
fragmentation
revered
lobbyists
contaminate
artworks
parameter
digestive
inhibited
tidal
rectang
democratization
steadily
blinking
statisticians
chewed
spoof
spooky
hugging
hydrant
reversed
unwanted
unwilling
scraping
380
jurvetson
preaching
patriotic
nightmares
straws
sympathetic
toxin
reassure
dodgers
sherman
shermer
empathic
epiphy
bidding
dummy
anthrax
configurations
tornado
mccain
whitney
whitacre
anecdot
neutrality
neutrino
ceramic
rudimentary
seamlessly
plutocracy
mullis
babylonian
championships
bureaucrats
pixel
orangutan
decompiculture
suppressing
templates
dwarfs
boggling
gorillas
choreographer
disclose
overlook
adulter
adversity
illiteracy
disposable
maneuverable
densities
scandinav
escaping
merchant
merchants
kelp
beasts
fluorescence
eagle
eagles
lolcats
niels
electrochemical
copernican
obliged
vigil
caregiver
utopia
epidemiology
reinforces
bumblebee
erupting
brainstorms
brainstorming
ottawa
ravaged
rampant
trumpet
sponges
poaching
opponents
arrogance
turbulence
dashboard
hedge
inheritance
pivotal
nuns
wagner
levine
mangroves
downsides
valentine
retrospective
jealousy
livelihoods
bodied
snobb
mauritius
unlocked
newborns
displacement
gluten
confessed
paused
frostb
ornish
incompatible
crummy
sensuality
fetched
gauge
preconceptions
interfering
recursive
##growth
excavate
archetype
cyclical
multiplicity
gymnosoph
municipal
incarceration
gavage
mourn
puddle
quarry
concoction
muffin
relentless
barbaric
appendage
perpetrators
skateboarding
mafia
interspecies
lettuce
recapit
cheeks
refreshing
rajasth
bargain
enslaved
spreadsheet
perseverance
plummeted
neurotransmitters
cadaver
lentils
inaugur
prairie
coercion
overestimate
contaminants
virulent
constellations
skyrocketing
scrotum
hierarchical
fermi
sardin
wacky
shaky
impairment
consortium
metallic
attorney
antonio
malawi
telepresence
michoacan
queerer
deregulation
uninterrupted
alleviate
yugoslavia
eavesdrop
faso
congolese
unconditional
amidst
interstellar
coconut
heartbreak
cataract
underside
cavalry
centrifuge
dusk
fulbright
kermit
saints
tolstoy
torosaurus
incoherent
stethoscope
ansari
teeming
indiscrim
brochure
synonymous
misleading
sweetheart
coworkers
irreversible
coincidentally
merchandise
cuisine
kangaroo
frivolous
fowler
lancet
malthus
nirvana
nugget
zurich
##ehyde
priesthood
exacerb
console
enshr
enhancing
placenta
uniqueness
overconf
florence
translucent
barcelona
undoubtedly
gymnosophist
rajasthan
06
04
69
aah
aero
azer
aicha
bers
bose
bins
bpa
bisc
boulder
cind
cite
cody
cited
dart
dors
dah
derm
dai
doris
dhabi
ere
ebert
fs
fild
fang
fick
ferg
fero
faked
favors
favored
g8
gin
gly
gul
h1
hates
hush
hides
houston
jop
jum
junction
kk
kant
kib
kool
klud
kipp
kitten
ketch
krypt
lore
lich
lac
latch
md
mitt
mish
mons
mizz
nfl
noses
ore
oval
oste
pate
pious
pts
pins
pouch
peters
psh
piers
pogue
porter
rp
rin
rar
rated
rale
rital
rene
ratt
rude
rama
rosy
rationally
sine
scent
sash
sided
sina
sivers
sigm
sizable
ting
tud
tipper
tainted
tivo
trenches
uf
ucs
vood
vouch
vora
witty
wretched
y2
zod
zap
zucker
##pons
##eons
##cases
##course
##ais
##aise
##aways
##rad
##rise
##mand
##mob
##ueless
##long
##lank
##lift
##dia
##dream
##kar
##krit
##bu
##bt
##bas
##bud
##bach
##bound
##bio
##bows
##belt
##bai
##nom
##nation
##nour
##nament
##voc
##vlar
##surfing
##gun
##yx
##hare
##hots
##haus
##will
##wks
##tim
##tie
##tale
##fc
##fires
##zhou
thames
##inical
##atl
##atur
##athing
##atons
##atient
##oulli
##osia
##osyn
##ington
##oni
##onim
##enian
##encer
##anity
incess
##alized
##oro
##orie
##orfer
##oria
##edict
##isk
##isal
##itics
##itator
##itiba
##arly
##arus
thatcher
##omit
##asse
##asher
##asia
whaling
itay
##icent
##icist
##iceless
isab
bew
##uter
reel
reint
reforestation
rewire
##ethe
##etrical
##entals
haired
##strous
query
stent
stool
stern
##idious
##idences
##idency
##urer
##uron
##chment
##choma
forer
##vern
##verted
anag
angr
anagn
anterior
wasp
##iman
##amins
ares
gov
hep
heh
heidi
##thiness
seva
segments
abusing
prere
priced
pruss
##olo
##olate
##ader
##adoes
asha
ascend
ascending
sham
shiv
shanty
##odle
##odeling
comr
##htub
chaz
chops
chilling
chanting
ally
allosphere
notable
notwith
##illo
##illiard
frater
##ilization
##ilitating
##gends
##gels
extern
deeds
dewey
orville
myel
pei
peering
pebble
##earse
conject
##aun
##uma
##umed
##arta
##okers
logs
maim
maced
macar
knobs
##istence
alum
alain
alto
alma
alibi
teasing
tewks
tramp
##inders
##india
proc
progen
outwards
outhouse
outlets
outgrowth
spices
spoo
##eryl
##unal
##unci
##unking
engel
##uson
plunder
##ainflu
##ivir
##elian
##eliness
##elbr
##elago
immer
##onelli
##apa
##apult
##inejad
veld
compuls
unans
unice
unbr
unpar
unload
lending
leym
leaven
legends
tabo
takers
##ardi
wayne
noaa
amory
ammun
perv
percussion
timely
hasan
##abb
##abasc
eva
evans
evils
evocative
manually
manju
##agons
feats
##itte
didactic
##uding
clinging
clueless
interm
interlo
interchange
intercourse
cove
coff
coarse
shephel
##iplegic
##ipelago
residence
resigned
disreg
dismal
disorient
needn
needy
overhe
overtime
overtake
imped
imply
impract
impenet
muck
branson
##pto
##ptop
backside
##sels
##ibu
##acas
acorn
acrylic
descends
idris
foll
lotus
adrian
synt
underworld
##fford
evenly
daydream
goodwill
grin
griff
heresy
eminent
##coaster
##sson
##icky
##ishable
downside
##raines
showers
drastically
scout
commuting
mayors
genus
inciner
carc
carving
caracas
##forming
strick
crumbling
doings
humanizing
persians
bland
earring
##redited
flare
flung
basel
##ertime
remake
remedy
##ubs
playstation
endure
endurance
inspected
thanked
##beater
keene
kevlar
monro
monica
monolithic
monstrous
pointill
pointless
imagines
imaginable
patroll
patrol
slid
slur
sliver
sliding
sludge
slugs
slowness
##erged
polo
politely
bitco
engages
solace
okin
tracy
traps
trachoma
miners
terabytes
natives
modality
modifications
highs
medals
edwards
##othe
extens
extras
extensively
extrovert
placement
completion
102
hugo
204
recal
crev
creed
momma
meta
metam
graft
gracious
grandson
biome
eli
##azed
skied
skoll
explodes
wofford
millionaire
capuch
warheads
generative
secondhand
presidency
subord
supplied
dolly
formulation
formulate
electoral
corp
handouts
handmade
hoover
organically
organizer
probiotics
rung
runaway
mindless
couste
funky
gloomy
entrenched
headrest
headwind
valuing
bestsell
##uese
accuse
##tenberg
companions
##ksw
groupers
##entional
governs
airbags
airborne
socialization
curing
curitiba
swat
swift
swami
swells
marian
marcel
marbles
parchment
parainflu
businessman
profiling
socioe
momentarily
glide
gloss
glued
glimps
midden
morb
##ographies
deton
milton
milestone
waits
waiter
chevy
cheesy
listens
giraff
painters
##boys
##boats
videot
robbing
discovers
confine
rests
restruct
bloop
##brate
billionaire
continental
locke
locust
testes
testable
testified
testicles
untold
geologic
geothermal
geolocation
foreman
menus
condes
filing
trem
156
1500
dipped
calves
calving
caloric
calorie
marketed
materiality
materialistic
archipelago
mustn
retrain
fronts
landlord
stev
stein
objections
##pshire
revive
revision
revolving
mathare
sung
sunni
sunitha
sunglasses
flyer
hyster
stephan
##onduct
elevent
collateral
##ronics
successive
antith
antagon
antivir
clearing
oceanic
oceanography
universals
freeman
rapp
provoking
directing
directory
esc
blackout
sugata
viability
supervision
superintend
granddad
grandfathers
cultured
temes
tempo
1812
chemok
trades
128
fallibility
breaker
psychic
psychotherapy
braille
squad
accessories
versat
verses
identifies
encore
multif
keyboards
keynote
##uprof
destab
volta
volksw
princes
##ltan
firewood
mornings
violating
predictability
telecoms
medicaid
northwestern
civilizational
experimentally
galactic
campbell
bloodshed
coloring
concur
facets
roadside
ache
critique
ecx
intelligently
ahh
pollinating
salient
salinas
##ophilia
##ophobia
erg
##uclear
postage
honoring
##borazo
diner
baloney
balinese
baltim
ballroom
periodically
emergencies
fundamentals
115
subjected
peacefully
sleek
awfully
textiles
starck
starved
starlight
starfish
puerto
progresses
soundscape
epa
snip
gradient
gradients
googlers
dangerously
microc
crossword
crossroads
connectedness
mechanistic
tommy
flux
caption
captive
laborers
crisp
fixated
imminent
translators
magnifying
codex
spectators
catal
catapult
sameness
wildest
councils
##iptical
debated
debilitating
enjoys
palo
palmer
mistry
benyus
145
judicial
climates
climax
174
contentious
distributes
distributions
randy
carts
cartesian
innovating
denounce
talgam
reminding
optimized
thrives
spiritually
coldest
determin
dogmas
specifications
sectarian
135
latte
latrine
broadcasters
hurdles
electronically
torque
dependencies
pigments
pigeons
motivator
journalistic
nationwide
##oidal
swimmer
muttering
2016
##cloth
##clinical
victories
1964
keny
appliance
consequently
mosaic
frankenstein
tribunal
ghettos
ordinarily
madrid
coffeehouse
symbolized
uttar
emailing
totalitarian
nigerians
wheeler
bandages
petr
conductors
mitra
rotterdam
photojour
academ
sculpted
novelists
narrower
narrator
alternating
fabian
blender
bleached
motorized
boundless
tournament
joyce
joystick
harmon
rebound
cruz
bombay
bombarded
juarez
juilliard
appeals
gallo
hosting
adaptable
adaptability
mascul
melinda
interperson
interpenet
murmur
appreciating
headscar
mcn
mcmur
##burst
seatbelt
embraces
creationism
hampshire
rounded
compares
cosmet
drying
##market
athabasc
breathes
dietrich
emptied
saucers
vanishing
##iffs
safari
informing
cosmological
contracting
contracted
contractions
islamism
faithful
reconf
reconfig
circumc
999
angela
perceives
valuation
piled
reformed
orchid
caul
caffe
spinner
colonize
weakest
hawk
hawkins
acquiring
dishon
dishman
hungary
complacency
ruby
surfers
1959
1956
1958
powell
shady
shading
snowfl
disciplinary
renewed
berry
berkley
witnesses
mandelbr
cerebell
sharper
cartooning
bathtub
ipcc
frameworks
augmentation
consisted
cubs
duties
semantic
horizons
linkedin
channeled
subscribe
subscribers
ridiculed
commentator
coordinating
absorption
nursery
claiming
##monuclear
dissidents
cyberatt
vibrational
##amba
pitching
rationality
elimination
assistants
mentoring
chocolates
murdering
bayes
hemlock
hemoglobin
estimation
olympus
flashy
toxicity
persuading
dictate
thermonuclear
meggend
tankers
yielded
osm
squeak
##agnosed
advancements
transplanting
symmetric
clustering
poisoned
blankets
1930
1932
puppete
piloted
downloads
migrations
migratory
bribed
lyrical
rosie
railroads
youthful
##ochs
resonated
resonates
weaponry
compositions
capsules
fools
constraint
expansive
emphasized
aeronaut
hubs
advocates
selig
buttock
conveying
nurtured
widow
widder
bubbling
stripe
wilkins
savory
regeneration
fertilize
fracture
fractions
sparkling
persisted
propositions
migraines
rodents
rodney
1910
1912
highlighting
suspense
gratuitous
coaching
coached
ferris
fermentation
hindus
tamara
vitamins
huntington
330
perpetuating
sprayed
sinking
##uffed
chimborazo
precogn
claes
##ocrates
parasitic
ducks
seventeenth
treasury
junkies
uniformly
evalu
subtly
subtraction
choirs
buddhas
absorbent
bounces
jarrett
manuals
aggregating
assessing
accompanying
hippocrates
ibuprof
tosses
tossed
inferences
stabilized
crowdsourcing
decorative
exclusion
exclamation
leopards
carlos
carlton
elliptical
nuis
napkins
intervened
molding
brushes
restrictive
cassava
amplified
amplification
inflated
inflatable
bathrooms
aristotelian
borough
borges
otto
otaku
piercing
girlfriends
playfulness
cultivation
horizontally
bernard
bernoulli
conquering
schematic
retreating
ladenism
hopelessly
hopelessness
fidelity
wristwatch
inhibits
gurus
varying
shredder
shreddies
penetration
fatalities
democratize
democratized
juveniles
correspondence
bumping
katie
1903
freaky
statistician
administrator
spoil
bradley
deposits
dictatorships
scold
scoop
reversing
canyons
scraps
cathedrals
stereotype
porch
interdisciplinary
patriarch
bertrand
lakshmi
mesmer
mesopotam
rehearse
metropolis
biofabric
retailers
thorium
tolls
earnings
incrementally
portuguese
accomplishments
distinguishes
culinary
dummies
ukrain
conspic
advisor
cocktails
bibles
himalayan
addicts
tornadoes
unveiling
equatorial
neutrinos
recklessness
seamount
seamless
shaved
shaft
chords
meadows
barbaria
stamped
cannon
exaggerated
argentine
nanometer
complaints
craftsmen
draining
gelatin
bypassed
compensation
preston
coherence
overlooking
adversaries
cheetos
mammograms
comedians
morphology
confirmation
thrusters
rumor
perfum
recurring
quadrant
cortical
eagerly
horns
unreliable
brigade
underpins
transmitting
irrespons
epileptic
admiral
utilizing
notebooks
obligations
jaipur
rugged
bladders
retrofit
epidemiologists
luria
interconnections
scribble
floppy
trailers
2025
serendipitous
aisles
##words
inverte
inverted
abdul
twenties
mindfulness
sunscreen
1890
trustworthiness
sanctity
counterpart
oncologist
starches
seizures
undertaken
slippers
terrace
submerged
stockpile
categorize
faunal
gnarly
mangrove
bruised
bruises
excluded
contributor
rhinoviruses
microblogging
flattened
implicitly
kobe
kathryn
vicinity
redundant
eyebrow
rollercoaster
taxpayers
megawatt
gastric
nodding
pauses
ulcer
shimon
ornith
proclamation
herbivores
incompreh
retrieval
ahmedabad
portrayed
byproducts
jenny
nagging
naughty
relocated
unbear
smuggled
hobbies
calibrated
viewpoints
multiplication
sausage
sausages
vertebra
derivative
derivatives
duplicate
coughing
notoriously
frowning
leahy
reprogram
condemned
juxtaposition
dialects
meyerowitz
albania
contingent
crayons
reliability
paranoid
harassed
eyeballs
awakening
reverberation
nostalgia
amphibians
microprocessors
dwelling
karajan
licklider
podium
rationale
##iyama
plunged
tahltan
hassle
arsenal
complementary
proprietary
succumb
extrapolate
urchin
ahmadinejad
salaam
virtuoso
masonry
kickstarter
ceremonies
beehive
culprit
petrochemicals
asymmetrical
dakota
kazakh
nimble
palsy
thumbs
andersen
mycorrh
lofty
overheard
turnaround
protagonist
detrimental
menopause
summoned
eclipse
kilowatt
scrutiny
inflammation
rejuvenation
bifur
eerie
fiji
ruthless
sistema
vermont
isotopes
mahabharata
proverbial
upgraded
intensified
mangoes
coyote
hispanic
crescent
photocop
confucius
revisit
hygiene
papercutting
semiconduct
emancipation
nephews
jurisdiction
loneliness
sanskrit
tncs
vampire
hewlett
prickly
canceled
peacock
newfound
cohort
disrespect
incapable
biohack
caretakers
substrate
registration
amputated
restraints
convulsions
degeneration
portfolio
misdirection
blockbuster
breastfeeding
rebreather
mercedes
seminar
dissertation
anesthetize
photoreceptors
biafran
bermuda
giacom
lounge
xiaoping
yanke
inundated
##alleled
deutsch
lovelace
spigot
bollocks
schrodinger
formaldehyde
valdez
deputy
territorial
raghava
hyperscore
hypothermia
nineteen
smithsonian
croatia
snobbery
enshrined
azerbai
berserk
fildes
ferguson
ferocious
h1n1
joplin
ketchup
krypton
mizzone
ptsd
petersburg
raleigh
ritalin
voodoo
voracious
y2k
zodiac
##lankton
##nourished
reintrod
notwithstanding
tewksbury
spoofer
engelbart
immerse
unansw
unicef
unparalleled
leymah
taboos
ammunition
shephelah
impractical
capuchin
cousteau
parainfluenza
socioeconomic
giraffes
eleventh
superintendent
baltimore
photojournal
mcmurdo
athabasca
mandelbrot
meggendorfer
ibuprofen
kazakhstan
azerbaijan
01
4chan
4sh
81
aa
ale
aun
aided
aired
aung
aka
bison
cot
cac
cep
cbs
casa
dc
dic
dine
dived
dizz
eig
eel
ether
erection
ephem
fn
fitt
fates
faking
fanc
fuses
fateful
fudge
gw
gow
gers
gever
ganes
gambling
hil
hort
hale
hik
ik
iuc
jol
jau
jak
jett
juries
jumble
kl
ki
kg
kig
kart
kab
kip
kary
kub
kav
kash
kern
karm
lp
lc
lus
lance
laps
lax
lloy
louds
lumines
lighth
mies
mog
mute
mats
masc
mashed
misha
nig
nif
nord
noun
o2
pg
pint
pors
piet
paced
paren
poked
ry
rau
rack
rans
rental
rup
rumb
rube
rutan
riley
sich
sarko
tart
tents
tiring
t20
tumbling
uz
ufo
vand
vase
vets
vash
vander
vortex
vested
viper
wong
yos
yew
yank
zer
zach
zac
zull
zabb
##oor
##oit
##oves
##oys
##oise
##pill
##post
##pret
##eger
##cit
##cule
##cardo
##rons
##rma
##md
##mos
##mac
##mail
##mined
##mouth
##uz
##upp
##uition
##uities
##uah
##uously
##lave
##leness
##iere
##df
##dock
##dler
##doms
##dala
##dutt
##kim
##kids
##kheim
##kata
##bos
##bil
##bab
##bread
##bott
##bels
##nan
##nery
##var
##via
##ventional
##slist
##gow
##gery
##gue
##grove
##gdala
##yen
##yar
##ygens
##hn
##hs
##hun
##hys
##hman
##hasa
##hoe
##wave
##wash
##wife
##tct
##zel
##xi
##xions
thee
theology
##erin
##eridge
##erde
##ercussions
##inally
##inqu
##inters
##inately
##oscopy
##rex
##requ
androm
androids
##onna
##onchi
topp
toroid
toonchi
##eny
##enberry
##eson
##esco
api
apoph
##anic
##anim
inception
inverse
inbox
inquis
inactivity
inaction
inanimate
##alach
##alians
##orical
##orial
##orio
##orget
##ituary
##itria
##arag
##otically
##otics
##otomy
##otected
##omet
##ometers
##asgow
whome
whew
whims
itunes
wean
weavers
weighing
isle
beac
##vell
rend
rete
regin
reusing
reimag
regrow
##etter
##etery
##entious
ontar
##security
haik
haze
havoc
##ayer
##ayan
soles
socr
sodom
soho
##stop
##stock
quizz
quieter
stained
stares
##igo
##igated
##igible
##urably
##chel
##chio
##chison
##chlor
##chryst
quotation
forager
##verbal
##ceived
##opia
##opular
##optery
ana
anil
wastes
##imens
##ereen
##iram
##irming
##amen
##amble
lib
livers
liken
libby
gobb
goering
gobble
heir
hege
heming
healed
healey
##thouse
##thetically
sears
seash
seams
abrupt
abbre
abortion
abani
aboard
prism
prius
##oli
##olunt
canoes
shi
shin
shill
shun
shard
shuk
shenz
shannon
shereen
##term
nem
neh
necks
atroph
chl
ches
chate
chel
chag
chatter
chih
##rable
##rawn
meld
mecca
meeger
allied
allerg
notices
fries
frans
frances
fringes
fruition
##ilo
##ilin
##ilian
##ante
##gell
##ulu
##ulus
##ulator
exterm
deed
depp
deworm
mycop
pew
peach
peasant
##ighted
conan
concess
##aux
##umetric
lob
logan
mahal
magell
##essori
knuck
##iste
alm
teme
trin
truss
##ifl
##iffe
##ifference
justified
outline
outgoing
spaced
spilled
sparse
sparking
spencer
enron
enigma
##usc
##usiness
upgrades
plow
plight
plated
plume
plaza
plausible
##orting
##ortical
byron
##ogical
intuit
introvers
introvert
##ivia
##ivably
##ivism
immed
saber
whichever
timed
timet
timothy
##apolis
suu
suction
##emis
##emite
##ameen
vend
compulsive
##ouring
unl
unpl
unful
unav
unins
unatt
unob
unused
unwind
unesco
leans
leag
leake
lehman
##oused
noir
ami
thanking
pert
perry
percol
perplex
expired
dong
donald
willpower
feki
feiler
##ongs
##ongous
premed
##agel
arias
aromat
arisen
clan
clones
clamp
clitor
twain
newer
coales
cohesive
cobras
##achi
##aching
makey
##ipeg
resumes
##iacy
startled
startups
discer
disks
disli
dissoci
discharged
overr
oversh
oversight
overpop
moog
bros
britt
brittle
brides
##pton
backdrop
backlit
##assa
##ignment
phi
phon
phyll
##angled
specially
contention
contend
desolate
idi
idios
foyer
lotto
lothar
##roa
##ulture
adored
##quer
##quist
synec
underde
undertake
indra
induce
inducted
indifference
boone
boca
grier
grump
grueling
grameen
humili
humberto
humongous
hered
hermit
ideologies
differenti
drc
drori
throughput
scam
scoring
scouts
realist
##ello
##ella
##ellant
##entsia
smoked
incoming
incisions
comeback
carroll
caramel
##angelo
##athe
##aths
##athed
##aryn
technocratic
##ivering
stray
strider
strata
surrog
crate
crus
crosso
cronin
factions
factual
humanism
persp
bled
blip
blanc
##uca
gull
guang
guga
guerr
percentages
earns
earrings
decis
decrypt
decimal
##onsider
flores
flavored
baskets
involunt
remodeling
obituary
colin
coleridge
schm
schul
schism
schne
schock
schlaug
schwart
##avo
##avened
turner
understate
importing
relic
helices
helios
endors
persona
creatives
oldenburg
insulating
insula
courthouse
transgress
transcending
transcends
transatl
conserved
conserving
artemis
##pey
monte
monaco
understandably
understandings
##ailing
schoolhouse
patton
patagon
planner
slop
slav
slipping
slicing
slopes
bitch
okoll
trawl
numbing
mined
stillness
serbian
serbia
medically
meditating
appalach
waterways
##otho
muses
muscular
hugs
huygens
203
recapt
reconsider
graze
bioc
biopsies
elit
elation
attent
##azard
farc
farce
skis
skaters
woody
wobble
wooh
repairs
repulsive
repercussions
millionth
##perse
warms
warping
warcraft
behar
generously
booked
hardened
visitor
subclinical
supplier
corrug
handc
handbag
##awton
##cerity
##ugger
numbered
##ahi
runoff
demons
futile
homegrown
entail
headd
heady
halve
redirect
reductions
grease
##wheel
speculated
speculative
internally
##eaded
airbag
airstrip
curated
swapt
productively
marie
marking
passages
keepers
para
parades
parik
photon
businesspeople
additive
profane
distressed
signatures
glim
glial
glasgow
topso
midair
brent
brevity
brenda
tedindia
moron
moratorium
autodes
##string
oppose
oppress
oppressive
##ashi
detach
faceless
musica
figur
infill
infuse
infancy
infrequ
milgram
wael
##resso
chech
propellant
sitcom
painfully
roboc
robbed
confluence
##otsman
bloated
##otta
maggie
devout
locav
forefront
foresight
securing
30th
mena
condor
condense
condensed
netted
godfather
##aterials
filament
filaments
diat
cala
memoirs
assange
assimil
audit
##riet
archaic
drags
dracore
mustaches
housework
retool
retrovir
pasta
pastry
extracur
landers
steward
revital
depiction
deposition
sunrise
harrowing
harriet
babe
babble
hypo
radcl
succession
digs
motel
antique
teaming
empowers
refining
refusing
measurably
plexig
milly
milliken
botton
raid
raft
nonverbal
varies
variant
varroa
predicated
cutter
operas
##ractive
blacks
blackawton
##culus
barge
barric
barrice
viagra
superorganism
grandest
voicem
optically
optional
interactively
handspring
wallpaper
cynic
lima
psychosis
communicated
majora
perfecting
localized
coping
braun
brahm
embodies
embroid
squint
penises
##umped
flocked
grounding
accessibility
totality
eventual
convol
dreamt
billie
sentin
sentenced
sentimental
whiteboard
keystone
electrically
silhou
destitute
cools
volant
volumetric
horowitz
firefly
fireworks
purity
considerations
urged
webb
modernization
malign
malarial
malibu
visualized
##etermined
paved
paola
sellers
worthiness
droplets
facs
combinator
unforget
ecosia
intelligentsia
conceptually
pollute
salty
saliva
competitor
meaningfully
erasing
furthest
benefic
eyeglasses
arrays
##yncr
##took
medicalized
truthful
generalized
generalization
##iker
relegate
driveway
achievable
synes
slender
riddled
burton
starter
definite
cleanliness
closeness
snor
snatch
functionally
conversational
grader
graded
skinner
primer
primacy
googled
efficiencies
parker
searchable
characterize
characterizes
capitalize
safeway
birthplace
##rosis
skylights
doorway
doorbell
vacations
##poon
##poke
activating
mobilization
cooker
fixes
doctoral
panama
magnetically
diagonal
spectra
spectator
impossibility
astro
sanjay
marsup
wilde
heavier
accountant
angular
anguish
phenomenally
miscar
blinding
mirr
miranda
annually
calculates
benoit
sweets
177
geront
geriatric
heroine
fleeting
fleeing
##repres
##zzie
docs
celebrations
optimum
optimists
turin
turret
throne
industrious
laf
environmentalist
industrialization
##factory
dogma
latitudes
latrines
blogged
dynasty
drinkable
titans
directional
haircut
yelled
jeanny
torped
torval
pigment
algal
ranking
ranks
usefulness
mutated
willingly
woodcut
conditional
conditioned
verifiable
1963
1961
##guan
##guard
applau
hydrop
custody
moschen
mris
popularized
frankie
##ecahedron
tailored
metaphys
laughs
husky
mountaintop
madh
maddie
##sha
##shell
##shaw
troublemaker
pleasurable
ignores
symbolizes
axi
utilities
uttered
platonic
rhodes
philosophies
tripod
customize
mammary
hypersonic
bandstand
hangover
sculpey
petty
mitigate
sculpting
explorations
correcting
corrective
federation
bounded
ambitions
##mett
streamlined
bombings
toughness
divert
grasshop
farmland
melbour
splits
##comers
mcchryst
defec
defeating
hamas
avoidance
hateful
rounding
replacements
seeded
ventric
ventures
wikis
dryer
drybath
exchanged
accelerators
grownups
stationary
exhibited
reviewers
emptiness
saucer
saunders
coalm
loading
dispose
disposs
dispense
volunteering
vanish
explanatory
advantageous
informative
illustrating
maturity
reinner
reconc
##ibrill
essentials
liquids
partnered
mythological
finishes
displaying
nervously
ratan
referenced
##amsala
orchids
caj
caitria
declassified
naval
hawken
qualifications
kitchens
walt
walters
waltz
congressman
initiating
rubbing
pregnancies
idealized
licensing
snowball
undefined
hypercard
occupations
occupational
renewal
unsur
cleverer
ensuring
enslave
sharon
baton
criticisms
mimicked
consisting
astonishment
biochemical
lesotho
quarterly
transplanted
reproduced
reproducing
catheter
montessori
subsistence
overwhelm
fibrosis
commenting
affluent
##worthy
rescuing
dereck
##monary
##ihaly
deceived
dissatis
cybersecurity
gyps
sargas
bellw
pedag
zeal
injectors
scratched
iii
densely
recomme
murderers
bayesian
louvre
rico
sincerity
breeders
concerto
rabin
neutron
geometrical
deployments
floral
repairing
ashdown
exploiting
dictated
megabyte
fabricate
trojan
jonny
pandora
distinctions
wheelchairs
nickel
nicarag
venereal
eradicating
rejecting
chambal
downloading
gigaw
plotting
bribing
linearity
cambrian
durkheim
dopa
theorem
inkjet
obliter
anonymously
tweaking
tweeting
philanthropist
cottage
lunar
conceal
conceivable
conceivably
composites
bucky
buckets
inequity
narrowing
maximizing
recommendations
28th
attendant
fooling
foolish
triggering
binoc
bugger
wolfe
inhale
acidic
consultancy
traumatized
widen
instantaneously
instantaneous
paradoxical
seduced
wilbur
locker
savvy
screamed
fertilization
fractures
glacial
bursting
dawned
prospera
aspirational
rodent
tutors
##organized
reconstructing
criminalize
styling
stylish
chronically
gratifying
graceful
simultaneous
protested
dunlap
horsesh
tamper
homelessness
enthusiast
cigar
nomad
nominated
##blad
##blown
receptacle
miserably
shockingly
fetal
karnat
pmtct
renderings
aristocracy
sponsoring
treason
subsidy
busted
##damn
uniformity
evaluating
summons
squeezed
janeiro
jugglers
aggregates
approximation
cylinders
crooked
hippo
lgbt
infert
stabbed
stabilizes
georges
screwing
formalized
propagate
selfishness
scholarships
lords
1926
distracting
tedxsum
stimulators
shirin
royalties
validation
validated
dubbed
kiran
napot
napster
tiburon
beijerin
sewing
amygdala
symphonies
columnist
creeping
pearls
amplitude
remixing
insisting
marrying
battal
snapped
tactic
doodles
scotch
dirtiest
jungles
##charging
uploading
sailor
sailors
cultivating
turkana
bernie
kamal
conquest
accents
retreated
jeweled
reverence
digestion
psychopaths
dickinson
kyi
picnic
picchu
tidied
neocortical
kinsey
meltdown
hayes
stadia
conferencing
inclined
inclusion
geckos
craigslist
conceptualize
hydrostatic
ventilate
kosovars
kuiper
episodes
466
fiery
porco
buzzing
couchsurfing
strawberries
incorporated
cadence
giulian
allende
acutely
boosting
hancock
nyota
dodge
dodecahedron
suffice
catalyze
reclaimed
aurochs
ukraine
##hesion
enriching
carpool
simulators
viscerally
tyrone
tyranny
forecasts
counselor
ragu
rags
lexicography
precipitating
entertained
prospects
substituting
stadiums
igf
soybean
soybeans
incubators
1879
dispersants
neutrons
zimbardo
shawn
pluto
persec
slogans
escalated
escalating
facilitated
misunderstand
narcotics
masturb
siberian
##project
iterations
praised
decibels
novoc
disconnection
decompose
superconducting
ambassadors
craftsmanship
austen
euph
huddled
psa
warehouses
compensated
adversarial
relieving
moderator
archaeological
archaeoptery
acknowledging
maneuverability
aunties
gagarin
lynch
hector
allocate
allocated
tectonics
outlined
morphed
circulate
circulating
circulatory
espresso
altruistic
advertisements
bundy
carrillo
swords
brewers
steeped
arguer
legislators
quadrillion
contradictory
dormant
dwellers
kapur
kaplan
nieces
wii
##engine
staph
intestines
leaky
transmits
michelangelo
colonialism
weaknesses
interdependent
gossamer
kitty
lazarus
reconnecting
shackleton
carniv
carnage
flushed
retrofits
retrofitting
faculties
pinpoints
constituents
spawned
hydrocarbon
aortic
owed
pulley
pulmonary
tulley
withdrawn
uncharted
locomotor
meritocratic
csi
glee
nikol
pupils
hexagons
uncovered
tractor
tractors
robbery
confirms
prematurely
botanical
congratulate
dashboards
fountains
hedon
lagoon
pamela
tilted
stalled
overdose
indulge
prompted
astrolabes
photoshopped
bartok
faucet
pasht
levitating
residue
contraption
millisecond
sleeves
microbloggers
punctuated
apocalyptic
boulev
bodily
kooks
krishna
ripples
##lasma
##orisis
stagnation
stagnant
plurality
unlocking
overturn
genitalium
biodegrade
paraplegic
surrendered
cheetahs
gastron
miklos
andrea
cantor
churning
proclaim
outfitted
compliant
feasibility
ardu
demolished
charisma
enclosure
pharmacology
bunny
sloan
toraja
torajans
reunion
quartile
preconceived
prehistory
reshape
mockingbirds
handicap
calibrate
provincial
biochemist
biochemistry
innocuous
narcissistic
incarcerated
cushions
tantal
##bourg
congregation
relentlessly
anatomical
gustavo
hodg
hustles
thighs
intolerable
intolerance
disincent
contingency
scourge
scrambled
surpassed
reliably
paranormal
eyelids
assassinated
neuropsych
pajamas
misconception
hydrophobic
ted2011
microprocessor
disproportionately
cogs
razor
cocoa
##ishnu
caricature
attenborough
infiltrate
bottleneck
bottlenecks
scripting
scripted
fischeri
adventurous
subtracting
cannibals
prosecuted
eloquently
jeremy
kiosk
thyself
heathrow
##thenes
necrophilia
myspace
overreact
futuristic
deviations
foreseeable
sunflowers
psychedelic
motorbikes
dissipate
cemetery
caterpill
gombe
ligament
tatum
quirky
heinz
franco
upwake
pledged
nozzle
clunky
interrelated
impassioned
adrenaline
remnant
amputees
geopolitical
##dochically
subtitles
biodegradable
stomatopod
pseudo
dharamsala
pachy
yucatan
zappos
thorny
goofy
exuberant
dexterity
amnesiac
engraved
camouflage
milligrams
irreducible
voltage
principals
roundabout
veterinarian
dystonia
allegedly
anomalies
reshaped
denisovans
indefinitely
anesthesiologist
aaaaa
bounty
bachelor
euler
kolkata
kinshasa
ostensibly
tzu
tuxed
zinc
connexions
lollipop
procter
spielberg
unprotected
unregulated
rookie
##coccus
scorpion
blossom
recollection
hockenberry
hoffman
geysers
caucasus
cystic
winnipeg
burqa
fingernails
libertarian
neurosurgeon
gandhian
sixthsense
paleoanthrop
rectangular
epiphytes
anecdotal
scandinavia
nielsen
inauguration
overconfidence
biscuits
erez
lichens
pierson
rarer
sashimi
ufos
ucsf
isabel
anagnorisis
prerequis
alumni
disregard
griffith
extrasolar
hysterical
versatile
academically
interpersonal
mcnuggets
reconfigur
caulifl
caffeine
cerebellum
seligman
biofabrication
ukrainian
vertebrae
mycorrhiza
giacometti
yankees
unanswered
4shbab
aunts
cephal
dizzying
fittest
fanciful
gowanus
iucn
jaund
jettison
kigali
karmapa
lloyd
loudspe
nifty
rumbaugh
sichuan
sarkozy
uzbe
yosemite
zullinger
zabbaleen
andromeda
apophis
whomever
whimsical
ontario
socrates
##imensional
hemingway
shillings
shenzhen
chateau
meegeren
mycoplasma
introversion
immediacy
unfulf
leagues
leakey
aromatase
clitoris
overpopulation
idiosyncr
synecdochically
underdevelop
grumpy
surrogate
involuntary
schocken
schwartz
okolloh
corrugated
swaptree
parikrma
autodesk
dracorex
extracurric
radcliffe
barricelli
cynicism
embroidery
silhouette
unforgettable
miscarriage
torvalds
melbourne
mcchrystal
sargasso
karnataka
tedxsummit
beijerinck
giuliani
archaeopteryx
boulevard
2nd
4d
4th
aol
ail
avel
aub
ayn
awhile
bates
bise
berg
bale
bism
brene
binder
ck
cin
cing
cic
cus
cact
caut
cots
capp
cuff
dion
dink
dame
dale
dues
domes
droids
ee
ej
eard
eater
ets
elyn
ekman
fou
fain
fue
fark
fists
filt
fading
gith
gaz
gills
gays
goran
hm
h2
hue
hens
hots
hops
hips
hille
hilton
ich
jd
jb
jn
jf
jor
jod
jog
jody
jav
jude
jami
jasm
jagger
java
jogging
jansky
ket
kod
kines
kism
kaf
klan
koko
lm
lb
lame
lah
laces
lament
lentic
linger
lfc
mps
munch
nal
nul
nok
nause
nach
nass
naut
napp
nipp
nude
ngu
nba
nsa
nintend
og
ostr
ovation
omn
pere
pant
pia
pits
pbs
pune
panda
piling
paws
ponies
qat
sust
satch
sval
sisy
tg
tir
tau
tms
tug
taper
tully
tigr
uber
vern
vishnu
ww
wry
wav
witch
wishing
waging
wicked
wmap
wifi
winky
xml
yb
yun
zag
zint
##oine
##pc
##pin
##pon
##pow
##pine
##pont
##pract
##pipe
##eh
##ecess
##eak
##eying
##ezing
##eka
##cat
##cco
##cott
##caster
##crew
##aoran
##rue
##rick
##rope
##rative
##rote
##rison
##rarian
##mg
##mic
##mith
##mort
##mills
##morden
##uv
##uw
##lam
##lically
##lists
##lining
##iree
##ioc
##iagnosed
##dn
##d4
##don
##kw
##kan
##kit
##kill
##bind
##bub
##bank
##bench
##nia
##nish
##nati
##number
##nesty
##si
##gim
##gang
##gages
##yt
##ytop
##hur
##him
##hil
##hock
##hoot
##wing
##wed
##tin
##tel
##tick
##tower
##fed
##fam
##fying
##fried
##finder
##founder
##zos
##zent
##zag
##jack
##jazz
##jaro
##x8
##xious
##x15
thie
thief
##eras
##erate
##erated
##inet
##inth
##inus
##inous
##inatory
##atro
##atiable
##ndur
##ndall
##ndous
##oured
##osc
##ositions
##osuction
##oscop
##osahedron
##reu
##reb
##rendous
##ingst
##onen
toen
##enas
##enny
##encers
##esa
##escent
aphor
##anam
##anks
##alified
##aldson
##orch
##orati
##isi
##isch
##iscus
##itab
##itars
##arn
##aris
##aras
##arle
##arine
##otine
##otry
##asper
##asium
##ascript
wham
ituri
italians
##icit
##icus
##lelu
##lehem
##owie
ishi
beak
beware
bellows
bezos
##utu
##ionate
ree
reen
reins
rework
reused
reuther
rehyd
ons
##seen
hab
haas
haus
haha
sod
sox
sodas
##sty
##star
##stones
##stocks
quarant
queries
quran
stared
stroll
stasis
stifle
##idad
##idable
##idium
##igai
##iguous
##urious
##chas
##chip
forks
##cephal
##opl
##opart
##oppable
anore
anise
annot
doerr
##imon
##impl
##imented
##ircle
##amis
liabilities
libra
libes
##ithec
heed
hepar
##thur
##thought
##theon
sext
seating
abom
abject
abbott
abreu
prud
prank
pritch
prune
prada
proust
##olin
##oling
##olan
##oloch
butts
butler
butcher
canv
##adal
##adish
##adema
ashan
asanga
shu
shud
shale
shedd
shaker
shaving
sheds
##terpret
##odon
##odic
##odops
neill
nemat
wors
worces
atms
chan
chill
chant
chute
chills
chores
chasm
chests
chitra
##rail
##raul
##raged
##racks
meats
alluded
noting
notch
notably
##illusion
frantic
frantically
##iltered
##uling
##estones
exting
exempt
somali
defer
decks
debit
deforest
dendr
della
orwell
peat
pepp
##earten
##earted
cones
conced
congen
##auna
##umar
##umption
##arty
loo
looming
lobot
maath
magr
mapend
##isty
##istas
##istem
##istines
##istingu
##istocene
alger
tending
trit
trom
trio
##ifix
##ifax
procr
outing
outper
outland
outset
outcast
outnumber
##ectomy
##inka
##inkle
spice
spacing
spasm
##uned
##uncture
eno
encr
##uspect
##ussy
uphold
uplift
##andi
##andis
##andescent
##ppel
pla
plasma
actu
##ogo
##ogas
##ogly
yearly
intending
##elow
##elia
##elance
##elier
everlast
sack
savers
sabot
timeless
suing
##emark
##emaker
##embourg
vein
unab
unman
unres
unru
unimp
unsh
unifying
unamb
unconnected
unorth
unilever
unjust
unanim
##astical
##ghum
##osecond
lex
lexig
taj
tacks
tacked
tacare
workbench
##izzing
##encephal
noes
amu
amur
amass
amused
amjad
amnesty
amitab
perverse
pernic
##abo
##abana
##abena
donaldson
manhood
maniac
manila
##aceans
willis
willow
willard
wherein
##aga
fecal
feisty
##ideen
agus
agrib
agrarian
preity
prenat
preamble
otherworld
##agell
##udgery
arro
clout
clump
clams
clonal
afar
interplan
anyhow
newcomers
cozy
coex
cofounder
shea
sheena
##acher
##feit
buick
buba
bueller
##ipes
resent
##iao
partis
disas
disqu
discon
discharge
disperse
disillusion
overly
overdo
overblown
moj
moor
impre
imposes
impulsive
impotent
##ologous
muir
mujah
brim
brck
brood
brushing
brd4
##ptured
rober
roaring
kinda
##enson
##ensen
##icep
phew
phyl
phytop
##selage
##ibil
##ango
speck
##acs
acup
foil
##rob
##roir
##loom
##loid
##loys
ada
adhere
adverse
adobe
##quest
##quity
##quoise
undertook
indignant
indistingu
boar
bobo
boiled
bonded
grues
gripping
humbly
embold
emeka
##iality
##ickers
##ishments
drastic
drills
dripping
drudgery
scant
scaring
scored
scyt
##phil
##phony
mayo
realism
techie
smother
smokers
incense
incision
incandescent
carrie
caravan
##akis
##akley
greats
bigelow
technorati
stripping
writ
wrath
surowie
crumble
facto
##nington
persia
blat
bling
blower
blake
blister
blizz
blakley
childlike
buildup
guise
guitars
##rences
earl
sims
flaw
flaps
flats
flared
flushing
flares
flipper
longtime
basil
basque
bashed
basingst
##orde
invin
invents
invari
remaking
rembra
obi
obeying
instilled
coli
##ubber
##ublish
##ubby
schle
learnt
playbook
relied
joie
inscribed
inserting
inscriptions
insensitive
insidious
insatiable
transient
transcripts
fuselage
experient
conson
artful
artifice
storyline
monog
monty
monstr
monarch
imaged
schoolte
kidn
sloth
slings
slander
##erglass
centre
centen
solomon
famines
trape
trache
trappings
minsky
teresa
terroir
modulation
medley
meditators
edm
edits
watered
watercol
watermarks
watermel
completes
musk
hux
hugh
huff
huaoran
recite
receding
finances
##issible
metro
lightest
computable
grander
biosp
biologic
biopoly
biopsy
biogas
elon
eliot
eluded
readout
readable
##azi
farmed
skier
skirt
skipping
skerry
skirts
woe
repulsion
repaired
repressive
reputations
warns
hardcore
subl
sublim
sublinear
subculture
reassemble
formally
formidable
corbus
##awat
##awing
hof
hoist
hoax
hooking
##ugal
animates
teachings
##fected
##aho
minding
singh
funnel
homeopathy
gloom
headphone
hallelu
halifax
redeem
earthlings
##ledy
specifying
valencia
accus
internship
cams
grouping
setbacks
curating
swum
swive
swapped
swirling
beginner
marches
marvin
marquez
shareholder
paroch
phototherapy
businessmen
##vironment
sociable
glint
gliders
glenny
##nevar
topical
midway
globalizing
##meal
morris
autocratic
autopsies
##crow
##crop
##cription
researched
##insic
##prom
##prising
detained
infid
infested
amazement
milestones
cheering
chekh
propane
youngster
computerized
robbers
rested
restroom
restrained
blooming
##brance
labored
defied
heartache
statesmen
classics
testify
positivity
newsroom
newsprint
newsweek
geodes
foresh
foregone
forefathers
secured
legadema
menstr
menacing
excite
condens
conduit
netizens
cancerous
goddamn
50x15
dipping
calab
calms
publications
memo
marketer
materialism
freeing
##rika
archer
arches
payne
payroll
hundredth
retention
retiring
retali
retinas
retouched
##versive
nightly
greenest
greenery
greenwich
greenhouses
cracking
objected
##bersome
##aney
reviving
depot
aval
avant
tooling
structurally
haring
hyenas
radios
dealings
motive
motif
motts
antip
antonelli
antoine
refurb
refuses
pleistocene
##usha
freelance
rao
raul
racially
nonstop
predetermined
predecess
provis
provisions
cutaway
messes
operatic
eskim
eighteenth
neurology
neurotic
expects
##racted
blackmore
barter
barking
barbs
barnett
sensational
supermod
supernormal
superhyd
superstring
grandkids
protector
protectors
void
voids
approve
opted
##entials
recorder
chemosyn
footing
centerline
majors
##inationals
trader
trademark
129
walled
fallacy
drugged
limor
##eroy
communicative
communicators
instituted
localize
copep
braking
bragg
embell
religiosity
squander
pickens
pickled
southam
servants
darkened
##ruit
iridium
presses
##ippy
##ippers
sexes
sexist
feeder
dreamer
filmcl
billowing
billiard
sentience
sentencing
256
moleeds
icefall
multinationals
silos
silenced
robotically
horner
horrendous
severity
streetlights
travelers
##plicable
##inyl
philistines
compassionately
urging
villa
violations
predictor
hotline
hotdog
hotmail
strait
modernist
circa
circling
malnourished
malpract
telegram
telephony
ceil
boxing
##nya
paired
cameraman
##ralight
##adeshi
roadrun
pathologist
developmentally
achill
promisc
layout
layering
##luid
ahn
ahhh
egot
expressway
ultralight
physicality
rockies
rocketry
erin
eras
furry
wishbone
phonemes
typeface
postal
##loyed
ballistic
##ivalent
generalizations
oxid
oxfam
##arring
##aptic
fairer
negl
ledge
subjectivity
trusts
tablecloth
synaptic
##structure
awry
ridden
ridley
tasking
burt
burke
texted
visionaries
starry
starlings
admits
admissions
trackers
gasp
snout
snares
intervals
damon
ladders
##maeric
buds
fantastically
sandals
spirited
spiraling
britney
faa
davos
mechanic
journeyman
homologous
conflicted
graphite
sendhil
tendai
tarter
tarmac
##ogenous
captchas
sequester
1600
1600s
immor
authoring
sufferings
checklists
catac
sancco
marshes
goldie
goldstein
misf
misin
misbe
misled
misgu
misused
hopped
surgically
##annies
detectable
frail
fraught
continuation
susana
christie
christine
christakis
benedict
bennington
infecting
mindsets
township
electrogram
173
fascism
receipts
distributing
kiln
kiloton
kiliman
positioned
fundamentalists
banished
randall
carton
odors
denying
##fficiency
troupe
hallmark
optimization
optimizing
carder
cardinal
darius
turnt
turmo
turquoise
thrun
thrived
##ietal
publishes
reflections
inventory
effortlessly
occurrences
##onomics
associating
soros
sorghum
136
titill
crypto
hairy
banged
torment
torso
nutshell
ranch
rankings
integrative
exhale
blockage
conditioner
tummy
moonlight
israelites
fitz
hydraul
moshe
microscopy
housed
methodologies
catcher
democratically
birdsong
##eca
tailings
standardization
bulges
prosaic
astrology
tribeca
beatjazz
ghonim
renny
husk
orde
madame
madoff
madonna
garde
taxis
taxation
ignite
iraqis
utilized
romans
shocker
resisting
philosophically
yellowstone
garner
garages
cornered
mammoth
mortgages
sicker
doublet
mitzv
rotor
rotary
rotors
recovers
gunfire
gunpow
battered
fabulously
nanopart
##afel
exploratory
corrections
blends
rebirth
accordion
virtuality
gallblad
appreh
counterl
counterfeit
credits
credentials
diverged
masking
masons
masai
rowe
rowed
cloudburst
habitual
farmville
priori
melanch
splint
professionalism
muriel
murders
##aimer
appreciative
replicators
mcf
zoology
##burger
defecation
horrors
fourths
hammett
shrug
departed
departure
grainy
seeding
regularity
obsessional
obsessively
shipment
baggage
indications
dragons
voter
drywall
##marked
##haas
##haul
clicker
grownup
simplification
bowels
bowls
lenny
bearings
brightness
reviewer
reviewing
coalitions
disprove
pacif
ticker
tickling
vannevar
safdie
illustrious
originals
documentaries
succeeds
cosmetic
cosmologist
brazilians
matric
reinterpret
shutting
circumvent
negotiable
##ova
thompson
angeline
primeval
appropriated
feedbacks
coward
cowboys
##hiking
prayed
stupidest
belongings
##liner
falafel
punta
kicker
spinach
colonel
##rophobic
ingrained
weakened
biomark
liquidity
wallets
unpopular
unpublish
twittering
discard
discord
discrep
discretion
dishearten
initiation
hungarians
manipulative
implausible
pinwheel
rubik
taniyama
instrumentation
concentrator
watery
##rofluid
1955
gayle
abstracted
unden
undiagnosed
converging
hyperactive
occupies
eldest
unsatis
unsuspect
driverless
ensuing
contempor
swedes
caste
castro
siri
isolating
commanding
commanded
hurtling
ipads
digitization
226
22nd
mimi
adventists
shameful
internalize
internalized
birthdays
negotiates
23rd
##urbed
virginity
cathartic
paddles
unknow
grasping
montage
fiberglass
affil
affinity
affirming
instructional
clinician
maxwell
dissolves
dissolving
cyberwar
gyros
gynec
unexpectedly
sarc
polynesian
memorizing
zebra
trendy
bespoke
borderless
macular
macmaster
premises
mentions
shellfish
insurgent
irritation
irritated
concluding
recombine
torturing
sinus
hemorrh
froze
270
27th
frighten
boomer
jeffrey
navigators
winged
rigor
hypothesized
whaleship
ashore
contrasts
jails
olig
olpc
yielding
accumulates
osorio
golfing
synthesizers
ghanaian
oriental
elevate
bosch
nitrous
clustered
boldly
paralymp
distinctly
325
nicotine
venk
venge
emphatically
1938
1931
puppies
adjusts
adjusting
adjustments
naively
ranged
rejects
dearth
proofs
gigatons
linearly
triangular
minorities
elegans
durability
gonads
rosetta
railways
adapts
spectacularly
encountering
ninos
tubing
##seye
unheard
tweeted
resonant
caveat
hanson
leatherback
leatherbacks
claron
buckle
attributable
narrowed
280
flourished
intrigue
sacredness
emphasizes
luxembourg
wandered
buggy
inhuman
consulted
consultation
fluidity
repeatable
bullied
striped
observational
paradoxes
gamer
mtv
seduce
externalities
lockers
lockhe
savor
savior
compromises
radii
radiate
radiology
radiates
disappointments
kissed
lucid
lucrative
rods
tutsi
ubiquity
1919
1917
1915
schizophrenics
parliamentary
stygim
curricula
proportionate
confidently
updating
dunbar
ferrofluid
jetman
chopsticks
velvet
##glass
redefines
gloria
glorified
rhythmic
dyed
fete
karate
anatomic
disrupted
##ocrity
##ocrats
magnificence
mysteriously
alcoholic
ramon
marvels
physiologically
enterprising
synchronization
bangladeshi
subsidized
subsidiary
albums
supersonic
evaluated
summertime
mcdon
botox
bounced
dysmor
inhabiting
aggregated
approximate
hippies
khaled
paleolithic
tossing
perceptive
screwdr
dentistry
laman
lambs
bridging
insanely
shrinks
sulfates
leopold
wolfgang
conveyor
ellsey
saturation
hutu
kirk
nuance
nuances
stairwell
sewer
cherished
overlaps
brushed
29th
umbil
##niscient
##hyth
proceeds
proceedings
amplifier
schedules
corrupts
corrupted
parachutes
dragonfly
implantation
coincided
boris
fostering
pierpont
rethinking
molars
tinier
aligning
sailboat
unleashing
interrupting
flickering
summarizes
kleiner
kamkw
lionel
niche
comprehend
awkwardness
victorians
contemplation
contemplative
stomachs
fiddler
antennas
canadians
scaffolds
dickens
ivo
kymaeric
pennies
egocentric
sweaty
democratizing
whistlebl
bumped
kurd
kurt
##cinnati
deprive
infantry
exhausting
exhaustion
romeo
hayst
spoiled
intricately
unstoppable
drifts
committees
hugged
cambodian
mildred
scooped
scooter
reversible
uninv
uninformed
stereotypical
yogi
enabler
buzzcar
blurred
swallowing
screenshot
tattooed
incorporating
incorporates
dreaded
diversion
diversify
luis
materially
siegel
siemens
apologies
apologizing
##anasia
helplessness
demosthenes
retailer
superstition
superstars
neglecting
bulletproof
cumbersome
munich
nyam
dodgy
suffoc
permian
evaporated
evaporates
caribou
empathetic
pollutant
stuntman
reclaiming
pavlov
anthem
disneyland
carpets
simulcast
prioritized
prioritizing
acousticians
biblically
precipitation
disparities
blasted
1854
prospective
voluntarily
whispered
unreason
respiration
reckon
shafts
evidently
mullah
mullins
obtaining
escalate
escalators
facilitator
exercised
merger
merged
mashup
ngozi
pixar
inquire
iterative
exaggerating
craftsman
dwarfed
cavitation
euphem
tilting
vivre
choreograph
choreography
bypassing
prestigious
disclaimer
relieve
extrinsic
gregory
supercomputers
forbidding
arbitrarily
maneuvering
grocer
groove
grooves
iqbal
outlawed
unacc
scrolling
trekking
circulated
improbability
pessimism
kelvin
abnormalities
exceedingly
recurrence
##productive
prevailed
scarcely
crystalline
crystallization
quadriplegic
inconvenience
dweller
envisioned
grammy
slamming
hobbyists
disagreed
proliferate
bhutanese
kitts
rugby
vigorous
isaiah
liposuction
carnival
carcinogenic
remembrance
bookstores
entitlement
empiric
1885
squirrels
spaceshipone
reinforcing
sulfuric
excerpts
eruptions
kalash
pistols
interconnection
reservoir
wrinkle
consolidated
bilateral
gleeson
linda
humiliated
colombo
centrality
metastas
hollowed
landfills
antidepressant
shortcuts
ceasefire
botany
botanist
paleontologists
wreckage
gourley
mulch
omniscient
pamph
wizards
oncogene
anesthetic
anesthetics
deceptively
mediocrity
submissions
stockpiles
imperialism
carpenters
683
bionic
faux
grooming
groomed
jamaican
mckim
tirelessly
chandelier
delegate
splendor
enlisted
levitt
levitation
clutter
interrogation
residual
remediation
fuckin
valentines
passports
diybio
volatility
galvani
rhinovirus
fingerprints
flattening
oblivion
aldo
html
hitchhiking
kathmand
ripple
sidney
tango
aphrod
aphids
allegiance
allegiances
uneasy
unmarried
intermediary
funniest
ted2008
depicts
averages
dmv
erode
hesitation
miko
rioting
cantilever
shimmer
prohibited
outfit
arduous
cranking
demolish
demolition
airbus
practitioner
firefighters
rebellious
sincerely
gossiping
##worms
reunited
coleman
smuggling
grapple
handwritten
hooves
parabola
parabolas
archeologists
cyborgs
cyclone
analysts
sprinting
vertebrates
gymnasium
duplicated
municipalities
disadvantages
insignificance
gbm
quarries
chaucer
chlorop
concoct
disintegrate
repositories
redistribution
detergents
condemning
awaits
augmenting
patriotism
resurrected
tyrannosaurus
therapeutics
cedar
cedars
farewell
icu
icosahedron
maiden
unquote
lettuces
inflicted
babysitters
refresher
bargaining
encompassing
diminish
diminishing
awakened
misconceptions
bleaching
thirsty
enslaving
spreadsheets
nostalgic
neurotransmitter
cisco
hasten
kraft
lisbon
tetrah
bethlehem
ankle
enveloping
plunge
##ishnan
crippled
limpopo
urchins
cardiology
taxonomy
hypnotic
sprinkle
beehives
culprits
underpinning
asymmetric
bastards
dosage
jagu
kunst
kiosks
niall
ooze
rapture
swayed
yoruba
##blood
theodore
reiterate
mysore
connotes
tranqu
trilogy
outpatient
sundays
unconventional
disguise
disguised
overreaction
engulfed
wobbly
sunflower
bracelets
definitively
motorbike
ferrari
johannesburg
precautionary
cessation
ducts
euthan
euthanasia
kohler
nasal
nourishing
omega
tandem
tinted
tethered
stubborn
abegg
lobbied
evolvable
grieving
endowment
greenspan
infringement
calamity
fantasies
martyr
python
pythag
bipedal
unrealistic
discontinued
meteorite
lavish
zigzag
thaler
rejoice
rewrite
reintegration
quasi
mendel
pendulum
spiky
enrico
plucked
twinkling
overstated
bristles
commemorating
crucifix
invasively
demoralized
antiquated
brackets
multidisciplinary
pundits
snippets
[...]
